module {
  aie.device(npu1_1col) {
    memref.global "private" constant @blockwrite_data : memref<9xi32> = dense<[1440, 0, 0, 0, 0, 0, 0, 0, 8]>
    memref.global "private" constant @blockwrite_data_0 : memref<444xi32> = dense<"0x43100038C30100005500000800005500000C0000990731169501404000C00100010001000100010055F87FFCFFFF5976301F2F780000B20462000000000000004D768CDCF0DF01000100010001000100010019140010010001000100010001009908B1149501402000C00100010001000100010059763E1803204B24000000001501007000000100010001000100010015010028030099063018010001000100C00300880300000000000000000000000100010001000100010001001908001001000100010001000100010019000000950000680000010001000100010001003B288B6508900140030003204B0500D08EFF3B290B25E8473F403EFF0320CB4500404EFF3B110002C30100D07FFF3B11A0A2C201008098FF3B1160C2C20100C0A8FF3B11B81803000000B8FF1960FE0F19C2FE0F1966FF0F19E4FF0F1962FB0FC00300880300000080C2FA070000000077108022C2010070F90FE40F5500090907007F00000002447338000000000000150100B0020043C8FF2728060000010001000100370100000000000000000000150100B0020043C8FF2768060000010001000100370100000000000000000000150100B0020043C8FF27880600000100010001003701000000000000000000004D9638D928FF4D16390A762059BA030259B4030159BE030259B8030159BC030259B2030159B603029D8F7B4F744059B00301FBAFF50700BA03C8774059BA0301FBCFB50700B40308772059BC0302FB9FF30600B40388762059B60302FB8F630400B20308762059B20302FBDFFB0700A203C8772059A20302FBCFBB0700BA0388774059B80301FBAFF50600BA0388744059BA0301FB8F710600B40388762059B60302FB1FFF0700B00308762059B20302FBCFBD0700BE0308772059BE0302FB2F650700BC0348773C59BCE302BDAFF58674000100998F71160100150100C00200BDCFF1877600BDEF7107760003203B2102007600F7203B4202B0E30000000000C0030048630028108046F90700000000150100C0020043C8032048060000010001000100370100000000000000000000150100C0020043C80320A8060000010001000100370100000000000000000000150100B0020043C8FF2728060000010001000100370100000000000000000000150100B0020043C8FF2768060000010001000100370100000000000000000000150100B0020043C8FF278806000001000100010037010000000000000000000059163B184D963A09760059B8030159B2030159BC030059B6030159BE030059B4030159BA03009D8F39CF740059B00301FBEF730600B8038F770059B80301FBBFF30700B203CF762059BE0300FBAF730700B2034F770059B40301FB8FE70400B2030F762059B20300FBCFB90700A6038F772059A60300FBBFF70700B8030F772059BE0300FBAF750700B6034F750059BA0301FB8F710600B4038F762059B60300FBEFFD0400B0030F762059B20300FBCFFD0700BC030F772059BE0300FB5F670700BC034F773C59BCE30099AFF51601000100150100C00200BD8F71C674E0BDCFF18776E0BDEF710776E003203BC0020076E07F0076FC652754C1000000482000150100C0020043C8032048060000010001000100370100000000000000000000150100C0020043C80320A8060000010001000100370100000000000000000000198C2114010001000100010001001D0132884EFFBB90FF67FFFF1F083FFF010001000100010001001907B416BDC273864EFFBD98F3463EFF9948B51699A57316950140A800C85500080C070055808A0A07005580090B070001000100D9C2FA075962FB0759E4FF075966FF0759E8FE075960FE0759EAFD07596CFD0759EEFC07D976FC07D9FEFB0719180010010001000100010037010000000000C0FF07000019121210191800100100010001000100C0030088030000000000000000000000010001000100010001000100191210101918001001000100010001001900000059960B185500000C000059763E185500800B000043280B9E3F8C2F009501401003C01920033819ECFF0F9942FE0F19C0FE0F2F780000380040008046FF070000D98603070100010001000100010001001914001059768E1D01000100010001009968F115950140F002C001000100010001002F78000038004000000000000000D942FE0759EEFE0759ECFF07D97EFF070100010001001918001001000100010001007F0000007100000000E0FF070000BB10D01AC00100480001BB10C042C00100C850003B299B24AA173E4050005936061C59F6841C55206D0C00000100010079F6C1189920C41043288B98F7300700D98E0307D986FB07010001000100010001001954001001000100010019000000C00300280B8002000000000000000000198CE71459160A1801000100010001005916791A1918001043280B8C01212300010001000100BB8E0300000000000000">
    memref.global "private" constant @blockwrite_data_1 : memref<6xi32> = dense<[5242896, 0, 0, 0, 0, 235159520]>
    memref.global "private" constant @blockwrite_data_2 : memref<6xi32> = dense<[5505040, 0, 0, 0, 0, 100941792]>
    memref.global "private" constant @blockwrite_data_3 : memref<6xi32> = dense<[4718608, 0, 0, 0, 0, 503611362]>
    memref.global "private" constant @blockwrite_data_4 : memref<6xi32> = dense<[4980752, 0, 0, 0, 0, 369393634]>
    memref.global "private" constant @blockwrite_data_5 : memref<6xi32> = dense<[4194320, 0, 0, 0, 0, 772055013]>
    memref.global "private" constant @blockwrite_data_6 : memref<6xi32> = dense<[4456464, 0, 0, 0, 0, 637837285]>
    aiex.runtime_sequence() {
      aiex.control_packet {address = 2301952 : ui32, data = array<i32: 0>, opcode = 0 : i32, stream_id = 0 : i32}
      aiex.control_packet {address = 2219536 : ui32, data = array<i32: 2>, opcode = 0 : i32, stream_id = 0 : i32}
      aiex.control_packet {address = 2219544 : ui32, data = array<i32: 2>, opcode = 0 : i32, stream_id = 0 : i32}
      aiex.control_packet {address = 2219520 : ui32, data = array<i32: 2>, opcode = 0 : i32, stream_id = 0 : i32}
      aiex.control_packet {address = 2219528 : ui32, data = array<i32: 2>, opcode = 0 : i32, stream_id = 0 : i32}
      aiex.control_packet {address = 2098560 : ui32, data = array<i32: 1440, 0, 0, 0>, opcode = 0 : i32, stream_id = 0 : i32}
      aiex.control_packet {address = 2098576 : ui32, data = array<i32: 0, 0, 0, 0>, opcode = 0 : i32, stream_id = 0 : i32}
      aiex.control_packet {address = 2098592 : ui32, data = array<i32: 8>, opcode = 0 : i32, stream_id = 0 : i32}
      aiex.control_packet {address = 2228224 : ui32, data = array<i32: 939528259, 451, 134217813, 5570560>, opcode = 0 : i32, stream_id = 0 : i32}
      aiex.control_packet {address = 2228240 : ui32, data = array<i32: 3072, 372311961, 1077936533, 114688>, opcode = 0 : i32, stream_id = 0 : i32}
      aiex.control_packet {address = 2228256 : ui32, data = array<i32: 65537, 65537, -58722219, 1985609727>, opcode = 0 : i32, stream_id = 0 : i32}
      aiex.control_packet {address = 2228272 : ui32, data = array<i32: 2016354096, 78774272, 98, 0>, opcode = 0 : i32, stream_id = 0 : i32}
      aiex.control_packet {address = 2228288 : ui32, data = array<i32: -594774451, 122864, 65537, 65537>, opcode = 0 : i32, stream_id = 0 : i32}
      aiex.control_packet {address = 2228304 : ui32, data = array<i32: 337182721, 69632, 65537, 65537>, opcode = 0 : i32, stream_id = 0 : i32}
      aiex.control_packet {address = 2228320 : ui32, data = array<i32: 347146393, 541065621, 114688, 65537>, opcode = 0 : i32, stream_id = 0 : i32}
      aiex.control_packet {address = 2228336 : ui32, data = array<i32: 65537, 406746713, 608903171, 0>, opcode = 0 : i32, stream_id = 0 : i32}
      aiex.control_packet {address = 2228352 : ui32, data = array<i32: 1879048469, 65536, 65537, 65537>, opcode = 0 : i32, stream_id = 0 : i32}
      aiex.control_packet {address = 2228368 : ui32, data = array<i32: 671088917, 110690307, 71728, 65537>, opcode = 0 : i32, stream_id = 0 : i32}
      aiex.control_packet {address = 2228384 : ui32, data = array<i32: -2013264960, 3, 0, 0>, opcode = 0 : i32, stream_id = 0 : i32}
      aiex.control_packet {address = 2228400 : ui32, data = array<i32: 65537, 65537, 65537, 268437529>, opcode = 0 : i32, stream_id = 0 : i32}
      aiex.control_packet {address = 2228416 : ui32, data = array<i32: 65537, 65537, 65537, 25>, opcode = 0 : i32, stream_id = 0 : i32}
      aiex.control_packet {address = 2228432 : ui32, data = array<i32: 1744830613, 65536, 65537, 65537>, opcode = 0 : i32, stream_id = 0 : i32}
      aiex.control_packet {address = 2228448 : ui32, data = array<i32: 1703618619, 1073844232, 537067523, -805305013>, opcode = 0 : i32, stream_id = 0 : i32}
      aiex.control_packet {address = 2228464 : ui32, data = array<i32: 691797902, 1206396171, -12697537, 1170939907>, opcode = 0 : i32, stream_id = 0 : i32}
      aiex.control_packet {address = 2228480 : ui32, data = array<i32: -11649024, 33558843, -805305917, 289144703>, opcode = 0 : i32, stream_id = 0 : i32}
      aiex.control_packet {address = 2228496 : ui32, data = array<i32: 29532832, -6782976, -1033891525, -1073741374>, opcode = 0 : i32, stream_id = 0 : i32}
      aiex.control_packet {address = 2228512 : ui32, data = array<i32: 289144744, 202936, -4718592, 268328985>, opcode = 0 : i32, stream_id = 0 : i32}
      aiex.control_packet {address = 2228528 : ui32, data = array<i32: 268354073, 268396057, 268428313, 268132889>, opcode = 0 : i32, stream_id = 0 : i32}
      aiex.control_packet {address = 2228544 : ui32, data = array<i32: -2013264960, 3, 133874304, 0>, opcode = 0 : i32, stream_id = 0 : i32}
      aiex.control_packet {address = 2228560 : ui32, data = array<i32: 578818167, 1879048642, 266604537, 151584853>, opcode = 0 : i32, stream_id = 0 : i32}
      aiex.control_packet {address = 2228576 : ui32, data = array<i32: 8323079, 1140981760, 14451, 0>, opcode = 0 : i32, stream_id = 0 : i32}
      aiex.control_packet {address = 2228592 : ui32, data = array<i32: -1342177003, -935133182, 103294975, 65536>, opcode = 0 : i32, stream_id = 0 : i32}
      aiex.control_packet {address = 2228608 : ui32, data = array<i32: 65537, 311, 0, 0>, opcode = 0 : i32, stream_id = 0 : i32}
      aiex.control_packet {address = 2228624 : ui32, data = array<i32: -1342177003, -935133182, 107489279, 65536>, opcode = 0 : i32, stream_id = 0 : i32}
      aiex.control_packet {address = 2228640 : ui32, data = array<i32: 65537, 311, 0, 0>, opcode = 0 : i32, stream_id = 0 : i32}
      aiex.control_packet {address = 2228656 : ui32, data = array<i32: -1342177003, -935133182, 109586431, 65536>, opcode = 0 : i32, stream_id = 0 : i32}
      aiex.control_packet {address = 2228672 : ui32, data = array<i32: 65537, 311, 0, 0>, opcode = 0 : i32, stream_id = 0 : i32}
      aiex.control_packet {address = 2228688 : ui32, data = array<i32: -650602931, 374210344, 544606777, 33798745>, opcode = 0 : i32, stream_id = 0 : i32}
      aiex.control_packet {address = 2228704 : ui32, data = array<i32: 17019993, 33799769, 17021017, 33799257>, opcode = 0 : i32, stream_id = 0 : i32}
      aiex.control_packet {address = 2228720 : ui32, data = array<i32: 17019481, 33797721, 1333497757, -1336328076>, opcode = 0 : i32, stream_id = 0 : i32}
      aiex.control_packet {address = 2228736 : ui32, data = array<i32: -1342504701, -1174403083, 1081591811, 17021529>, opcode = 0 : i32, stream_id = 0 : i32}
      aiex.control_packet {address = 2228752 : ui32, data = array<i32: 129355771, 134460416, -1135009673, -1610939901>, opcode = 0 : i32, stream_id = 0 : i32}
      aiex.control_packet {address = 2228768 : ui32, data = array<i32: -1275066637, 544638979, 33797721, 73633787>, opcode = 0 : i32, stream_id = 0 : i32}
      aiex.control_packet {address = 2228784 : ui32, data = array<i32: 134459904, -1302781834, -537198077, -1577056261>, opcode = 0 : i32, stream_id = 0 : i32}
      aiex.control_packet {address = 2228800 : ui32, data = array<i32: 544720899, 33792601, 129748987, -2013021696>, opcode = 0 : i32, stream_id = 0 : i32}
      aiex.control_packet {address = 2228816 : ui32, data = array<i32: -1202110345, -1342504701, -1174403339, 1081378819>, opcode = 0 : i32, stream_id = 0 : i32}
      aiex.control_packet {address = 2228832 : ui32, data = array<i32: 17021529, 108105723, -2013023232, -1235672970>, opcode = 0 : i32, stream_id = 0 : i32}
      aiex.control_packet {address = 2228848 : ui32, data = array<i32: 536543747, -1342175233, 544606211, 33796697>, opcode = 0 : i32, stream_id = 0 : i32}
      aiex.control_packet {address = 2228864 : ui32, data = array<i32: 129880059, 134462976, -1101455241, 804979203>, opcode = 0 : i32, stream_id = 0 : i32}
      aiex.control_packet {address = 2228880 : ui32, data = array<i32: -1140848795, 1014450179, 48479321, -2030719043>, opcode = 0 : i32, stream_id = 0 : i32}
      aiex.control_packet {address = 2228896 : ui32, data = array<i32: 65652, 376541081, 18153473, 180224>, opcode = 0 : i32, stream_id = 0 : i32}
      aiex.control_packet {address = 2228912 : ui32, data = array<i32: -2014195779, -272826250, 7735153, 557522947>, opcode = 0 : i32, stream_id = 0 : i32}
      aiex.control_packet {address = 2228928 : ui32, data = array<i32: 7733250, 1111171319, 14921730, 0>, opcode = 0 : i32, stream_id = 0 : i32}
      aiex.control_packet {address = 2228944 : ui32, data = array<i32: 1207960512, 271056995, 133777024, 0>, opcode = 0 : i32, stream_id = 0 : i32}
      aiex.control_packet {address = 2228960 : ui32, data = array<i32: -1073741547, -935133182, 105390083, 65536>, opcode = 0 : i32, stream_id = 0 : i32}
      aiex.control_packet {address = 2228976 : ui32, data = array<i32: 65537, 311, 0, 0>, opcode = 0 : i32, stream_id = 0 : i32}
      aiex.control_packet {address = 2228992 : ui32, data = array<i32: -1073741547, -935133182, 111681539, 65536>, opcode = 0 : i32, stream_id = 0 : i32}
      aiex.control_packet {address = 2229008 : ui32, data = array<i32: 65537, 311, 0, 0>, opcode = 0 : i32, stream_id = 0 : i32}
      aiex.control_packet {address = 2229024 : ui32, data = array<i32: -1342177003, -935133182, 103294975, 65536>, opcode = 0 : i32, stream_id = 0 : i32}
      aiex.control_packet {address = 2229040 : ui32, data = array<i32: 65537, 311, 0, 0>, opcode = 0 : i32, stream_id = 0 : i32}
      aiex.control_packet {address = 2229056 : ui32, data = array<i32: -1342177003, -935133182, 107489279, 65536>, opcode = 0 : i32, stream_id = 0 : i32}
      aiex.control_packet {address = 2229072 : ui32, data = array<i32: 65537, 311, 0, 0>, opcode = 0 : i32, stream_id = 0 : i32}
      aiex.control_packet {address = 2229088 : ui32, data = array<i32: -1342177003, -935133182, 109586431, 65536>, opcode = 0 : i32, stream_id = 0 : i32}
      aiex.control_packet {address = 2229104 : ui32, data = array<i32: 65537, 311, 0, 0>, opcode = 0 : i32, stream_id = 0 : i32}
      aiex.control_packet {address = 2229120 : ui32, data = array<i32: 406525529, 154834509, -1202126730, -1302789885>, opcode = 0 : i32, stream_id = 0 : i32}
      aiex.control_packet {address = 2229136 : ui32, data = array<i32: -1135017725, -1235681277, -1101463293, -1269235709>, opcode = 0 : i32, stream_id = 0 : i32}
      aiex.control_packet {address = 2229152 : ui32, data = array<i32: -1168572157, -1885536253, 7655225, 17018969>, opcode = 0 : i32, stream_id = 0 : i32}
      aiex.control_packet {address = 2229168 : ui32, data = array<i32: 108261371, -1895581696, -1202126729, -1074069245>, opcode = 0 : i32, stream_id = 0 : i32}
      aiex.control_packet {address = 2229184 : ui32, data = array<i32: -1308620813, 544657155, 245337, 125022203>, opcode = 0 : i32, stream_id = 0 : i32}
      aiex.control_packet {address = 2229200 : ui32, data = array<i32: 1325642240, -1269235593, -1879375613, -1308621593>, opcode = 0 : i32, stream_id = 0 : i32}
      aiex.control_packet {address = 2229216 : ui32, data = array<i32: 544608003, 242265, 129617915, -1895586304>, opcode = 0 : i32, stream_id = 0 : i32}
      aiex.control_packet {address = 2229232 : ui32, data = array<i32: -1504108425, -1074069501, -1207957513, 544673539>, opcode = 0 : i32, stream_id = 0 : i32}
      aiex.control_packet {address = 2229248 : ui32, data = array<i32: 245337, 125153275, 1325643264, -1168572299>, opcode = 0 : i32, stream_id = 0 : i32}
      aiex.control_packet {address = 2229264 : ui32, data = array<i32: -1879375613, -1275066767, 544640771, 243289>, opcode = 0 : i32, stream_id = 0 : i32}
      aiex.control_packet {address = 2229280 : ui32, data = array<i32: 83750907, 251899904, -1302781834, -805634045>, opcode = 0 : i32, stream_id = 0 : i32}
      aiex.control_packet {address = 2229296 : ui32, data = array<i32: -1140848643, 544673539, 245337, 124215291>, opcode = 0 : i32, stream_id = 0 : i32}
      aiex.control_packet {address = 2229312 : ui32, data = array<i32: 1325644800, -1135002505, -1348927261, 71413>, opcode = 0 : i32, stream_id = 0 : i32}
      aiex.control_packet {address = 2229328 : ui32, data = array<i32: 18153473, 180224, -965636163, -809639820>, opcode = 0 : i32, stream_id = 0 : i32}
      aiex.control_packet {address = 2229344 : ui32, data = array<i32: -529102863, 124907453, 537124982, 180283>, opcode = 0 : i32, stream_id = 0 : i32}
      aiex.control_packet {address = 2229360 : ui32, data = array<i32: 8380534, 660995190, 49492, 2115584>, opcode = 0 : i32, stream_id = 0 : i32}
      aiex.control_packet {address = 2229376 : ui32, data = array<i32: -1073741547, -935133182, 105390083, 65536>, opcode = 0 : i32, stream_id = 0 : i32}
      aiex.control_packet {address = 2229392 : ui32, data = array<i32: 65537, 311, 0, 0>, opcode = 0 : i32, stream_id = 0 : i32}
      aiex.control_packet {address = 2229408 : ui32, data = array<i32: -1073741547, -935133182, 111681539, 65536>, opcode = 0 : i32, stream_id = 0 : i32}
      aiex.control_packet {address = 2229424 : ui32, data = array<i32: 65537, 311, 0, 0>, opcode = 0 : i32, stream_id = 0 : i32}
      aiex.control_packet {address = 2229440 : ui32, data = array<i32: 337742873, 65537, 65537, 18677761>, opcode = 0 : i32, stream_id = 0 : i32}
      aiex.control_packet {address = 2229456 : ui32, data = array<i32: -11630542, 1744801979, 136314879, 130879>, opcode = 0 : i32, stream_id = 0 : i32}
      aiex.control_packet {address = 2229472 : ui32, data = array<i32: 65537, 65537, 380897049, -2039233859>, opcode = 0 : i32, stream_id = 0 : i32}
      aiex.control_packet {address = 2229488 : ui32, data = array<i32: -1732378802, -12695821, 380979353, 376677785>, opcode = 0 : i32, stream_id = 0 : i32}
      aiex.control_packet {address = 2229504 : ui32, data = array<i32: -1472200299, 5621760, 461832, 176848981>, opcode = 0 : i32, stream_id = 0 : i32}
      aiex.control_packet {address = 2229520 : ui32, data = array<i32: -2141913081, 461577, 65537, 133874393>, opcode = 0 : i32, stream_id = 0 : i32}
      aiex.control_packet {address = 2229536 : ui32, data = array<i32: 133915225, 134210649, 134178393, 134146137>, opcode = 0 : i32, stream_id = 0 : i32}
      aiex.control_packet {address = 2229552 : ui32, data = array<i32: 134111321, 134081113, 134048857, 134016601>, opcode = 0 : i32, stream_id = 0 : i32}
      aiex.control_packet {address = 2229568 : ui32, data = array<i32: 133986009, 133955289, 268441625, 65537>, opcode = 0 : i32, stream_id = 0 : i32}
      aiex.control_packet {address = 2229584 : ui32, data = array<i32: 65537, 311, -1073741824, 2047>, opcode = 0 : i32, stream_id = 0 : i32}
      aiex.control_packet {address = 2229600 : ui32, data = array<i32: 269619737, 268441625, 65537, 65537>, opcode = 0 : i32, stream_id = 0 : i32}
      aiex.control_packet {address = 2229616 : ui32, data = array<i32: -2013264960, 3, 0, 0>, opcode = 0 : i32, stream_id = 0 : i32}
      aiex.control_packet {address = 2229632 : ui32, data = array<i32: 65537, 65537, 65537, 269488665>, opcode = 0 : i32, stream_id = 0 : i32}
      aiex.control_packet {address = 2229648 : ui32, data = array<i32: 268441625, 65537, 65537, 25>, opcode = 0 : i32, stream_id = 0 : i32}
      aiex.control_packet {address = 2229664 : ui32, data = array<i32: 403412569, 201326677, 1985544192, 5576766>, opcode = 0 : i32, stream_id = 0 : i32}
      aiex.control_packet {address = 2229680 : ui32, data = array<i32: 2944, -1643435965, 3116095, 272630165>, opcode = 0 : i32, stream_id = 0 : i32}
      aiex.control_packet {address = 2229696 : ui32, data = array<i32: 538558467, -333891581, 1117327359, -1072099330>, opcode = 0 : i32, stream_id = 0 : i32}
      aiex.control_packet {address = 2229712 : ui32, data = array<i32: 2016350206, 3670016, 1182793792, 2047>, opcode = 0 : i32, stream_id = 0 : i32}
      aiex.control_packet {address = 2229728 : ui32, data = array<i32: 117671641, 65537, 65537, 65537>, opcode = 0 : i32, stream_id = 0 : i32}
      aiex.control_packet {address = 2229744 : ui32, data = array<i32: 268440601, 495875673, 65537, 65537>, opcode = 0 : i32, stream_id = 0 : i32}
      aiex.control_packet {address = 2229760 : ui32, data = array<i32: 368142489, -264240747, 114690, 65537>, opcode = 0 : i32, stream_id = 0 : i32}
      aiex.control_packet {address = 2229776 : ui32, data = array<i32: 2016346113, 3670016, 64, 0>, opcode = 0 : i32, stream_id = 0 : i32}
      aiex.control_packet {address = 2229792 : ui32, data = array<i32: 134103769, 134147673, 134212697, 134184665>, opcode = 0 : i32, stream_id = 0 : i32}
      aiex.control_packet {address = 2229808 : ui32, data = array<i32: 65537, 404291585, 69632, 65537>, opcode = 0 : i32, stream_id = 0 : i32}
      aiex.control_packet {address = 2229824 : ui32, data = array<i32: 8323073, 7405568, -536870912, 2047>, opcode = 0 : i32, stream_id = 0 : i32}
      aiex.control_packet {address = 2229840 : ui32, data = array<i32: 449843387, 1207960000, 280690944, 29377216>, opcode = 0 : i32, stream_id = 0 : i32}
      aiex.control_packet {address = 2229856 : ui32, data = array<i32: 5294080, 614148411, 1077811114, 911802448>, opcode = 0 : i32, stream_id = 0 : i32}
      aiex.control_packet {address = 2229872 : ui32, data = array<i32: -161932282, 542448772, 3181, 65537>, opcode = 0 : i32, stream_id = 0 : i32}
      aiex.control_packet {address = 2229888 : ui32, data = array<i32: 415364729, 281288857, -1735710653, 471287>, opcode = 0 : i32, stream_id = 0 : i32}
      aiex.control_packet {address = 2229904 : ui32, data = array<i32: 117673689, 133924569, 65537, 65537>, opcode = 0 : i32, stream_id = 0 : i32}
      aiex.control_packet {address = 2229920 : ui32, data = array<i32: 1410924545, 69632, 65537, 25>, opcode = 0 : i32, stream_id = 0 : i32}
      aiex.control_packet {address = 2229936 : ui32, data = array<i32: 671089600, 163851, 0, 0>, opcode = 0 : i32, stream_id = 0 : i32}
      aiex.control_packet {address = 2229952 : ui32, data = array<i32: 350719001, 403314265, 65537, 65537>, opcode = 0 : i32, stream_id = 0 : i32}
      aiex.control_packet {address = 2229968 : ui32, data = array<i32: 444143193, 268441625, -1945425853, 2302209>, opcode = 0 : i32, stream_id = 0 : i32}
      aiex.control_packet {address = 2229984 : ui32, data = array<i32: 65537, -1900347391, 3, 0>, opcode = 0 : i32, stream_id = 0 : i32}
      aiex.control_packet {address = 2219536 : ui32, data = array<i32: 0>, opcode = 0 : i32, stream_id = 0 : i32}
      aiex.control_packet {address = 2219544 : ui32, data = array<i32: 0>, opcode = 0 : i32, stream_id = 0 : i32}
      aiex.control_packet {address = 2219520 : ui32, data = array<i32: 0>, opcode = 0 : i32, stream_id = 0 : i32}
      aiex.control_packet {address = 2219528 : ui32, data = array<i32: 0>, opcode = 0 : i32, stream_id = 0 : i32}
      aiex.control_packet {address = 2301952 : ui32, data = array<i32: 2>, opcode = 0 : i32, stream_id = 0 : i32}
      aiex.control_packet {address = 2301952 : ui32, data = array<i32: 0>, opcode = 0 : i32, stream_id = 0 : i32}
      aiex.control_packet {address = 2224128 : ui32, data = array<i32: 0>, opcode = 0 : i32, stream_id = 0 : i32}
      aiex.control_packet {address = 2224144 : ui32, data = array<i32: 0>, opcode = 0 : i32, stream_id = 0 : i32}
      aiex.control_packet {address = 2224160 : ui32, data = array<i32: 0>, opcode = 0 : i32, stream_id = 0 : i32}
      aiex.control_packet {address = 2224176 : ui32, data = array<i32: 0>, opcode = 0 : i32, stream_id = 0 : i32}
      aiex.control_packet {address = 2224192 : ui32, data = array<i32: 0>, opcode = 0 : i32, stream_id = 0 : i32}
      aiex.control_packet {address = 2224208 : ui32, data = array<i32: 0>, opcode = 0 : i32, stream_id = 0 : i32}
      aiex.control_packet {address = 2224224 : ui32, data = array<i32: 0>, opcode = 0 : i32, stream_id = 0 : i32}
      aiex.control_packet {address = 2224240 : ui32, data = array<i32: 0>, opcode = 0 : i32, stream_id = 0 : i32}
      aiex.control_packet {address = 2224256 : ui32, data = array<i32: 0>, opcode = 0 : i32, stream_id = 0 : i32}
      aiex.control_packet {address = 2224272 : ui32, data = array<i32: 0>, opcode = 0 : i32, stream_id = 0 : i32}
      aiex.control_packet {address = 2224288 : ui32, data = array<i32: 0>, opcode = 0 : i32, stream_id = 0 : i32}
      aiex.control_packet {address = 2224304 : ui32, data = array<i32: 0>, opcode = 0 : i32, stream_id = 0 : i32}
      aiex.control_packet {address = 2224320 : ui32, data = array<i32: 0>, opcode = 0 : i32, stream_id = 0 : i32}
      aiex.control_packet {address = 2224336 : ui32, data = array<i32: 0>, opcode = 0 : i32, stream_id = 0 : i32}
      aiex.control_packet {address = 2224352 : ui32, data = array<i32: 0>, opcode = 0 : i32, stream_id = 0 : i32}
      aiex.control_packet {address = 2224368 : ui32, data = array<i32: 0>, opcode = 0 : i32, stream_id = 0 : i32}
      aiex.control_packet {address = 81984 : ui32, data = array<i32: 1>, opcode = 0 : i32, stream_id = 0 : i32}
      aiex.control_packet {address = 82000 : ui32, data = array<i32: 0>, opcode = 0 : i32, stream_id = 0 : i32}
      aiex.control_packet {address = 2224192 : ui32, data = array<i32: 2>, opcode = 0 : i32, stream_id = 0 : i32}
      aiex.control_packet {address = 2224208 : ui32, data = array<i32: 0>, opcode = 0 : i32, stream_id = 0 : i32}
      aiex.control_packet {address = 2224160 : ui32, data = array<i32: 2>, opcode = 0 : i32, stream_id = 0 : i32}
      aiex.control_packet {address = 2224176 : ui32, data = array<i32: 0>, opcode = 0 : i32, stream_id = 0 : i32}
      aiex.control_packet {address = 81952 : ui32, data = array<i32: 1>, opcode = 0 : i32, stream_id = 0 : i32}
      aiex.control_packet {address = 81968 : ui32, data = array<i32: 0>, opcode = 0 : i32, stream_id = 0 : i32}
      aiex.control_packet {address = 2224128 : ui32, data = array<i32: 2>, opcode = 0 : i32, stream_id = 0 : i32}
      aiex.control_packet {address = 2224144 : ui32, data = array<i32: 0>, opcode = 0 : i32, stream_id = 0 : i32}
      aiex.control_packet {address = 81920 : ui32, data = array<i32: 1>, opcode = 0 : i32, stream_id = 0 : i32}
      aiex.control_packet {address = 81936 : ui32, data = array<i32: 0>, opcode = 0 : i32, stream_id = 0 : i32}
      aiex.control_packet {address = 2215936 : ui32, data = array<i32: 5242896, 0, 0, 0>, opcode = 0 : i32, stream_id = 0 : i32}
      aiex.control_packet {address = 2215952 : ui32, data = array<i32: 0, 235159520>, opcode = 0 : i32, stream_id = 0 : i32}
      aiex.control_packet {address = 2215968 : ui32, data = array<i32: 5505040, 0, 0, 0>, opcode = 0 : i32, stream_id = 0 : i32}
      aiex.control_packet {address = 2215984 : ui32, data = array<i32: 0, 100941792>, opcode = 0 : i32, stream_id = 0 : i32}
      aiex.control_packet {address = 2216000 : ui32, data = array<i32: 4718608, 0, 0, 0>, opcode = 0 : i32, stream_id = 0 : i32}
      aiex.control_packet {address = 2216016 : ui32, data = array<i32: 0, 503611362>, opcode = 0 : i32, stream_id = 0 : i32}
      aiex.control_packet {address = 2216032 : ui32, data = array<i32: 4980752, 0, 0, 0>, opcode = 0 : i32, stream_id = 0 : i32}
      aiex.control_packet {address = 2216048 : ui32, data = array<i32: 0, 369393634>, opcode = 0 : i32, stream_id = 0 : i32}
      aiex.control_packet {address = 2216064 : ui32, data = array<i32: 4194320, 0, 0, 0>, opcode = 0 : i32, stream_id = 0 : i32}
      aiex.control_packet {address = 2216080 : ui32, data = array<i32: 0, 772055013>, opcode = 0 : i32, stream_id = 0 : i32}
      aiex.control_packet {address = 2216096 : ui32, data = array<i32: 4456464, 0, 0, 0>, opcode = 0 : i32, stream_id = 0 : i32}
      aiex.control_packet {address = 2216112 : ui32, data = array<i32: 0, 637837285>, opcode = 0 : i32, stream_id = 0 : i32}
      aiex.control_packet {address = 2219524 : ui32, data = array<i32: 0>, opcode = 0 : i32, stream_id = 0 : i32}
      aiex.control_packet {address = 2219520 : ui32, data = array<i32: 1>, opcode = 0 : i32, stream_id = 0 : i32}
      aiex.control_packet {address = 2219532 : ui32, data = array<i32: 2>, opcode = 0 : i32, stream_id = 0 : i32}
      aiex.control_packet {address = 2219528 : ui32, data = array<i32: 1>, opcode = 0 : i32, stream_id = 0 : i32}
      aiex.control_packet {address = 2219540 : ui32, data = array<i32: 4>, opcode = 0 : i32, stream_id = 0 : i32}
      aiex.control_packet {address = 2219536 : ui32, data = array<i32: 1>, opcode = 0 : i32, stream_id = 0 : i32}
      aiex.control_packet {address = 258100 : ui32, data = array<i32: -2147483643>, opcode = 0 : i32, stream_id = 0 : i32}
      aiex.control_packet {address = 258324 : ui32, data = array<i32: -2147483648>, opcode = 0 : i32, stream_id = 0 : i32}
      aiex.control_packet {address = 258048 : ui32, data = array<i32: -2147483643>, opcode = 0 : i32, stream_id = 0 : i32}
      aiex.control_packet {address = 258324 : ui32, data = array<i32: -2147483648>, opcode = 0 : i32, stream_id = 0 : i32}
      aiex.control_packet {address = 258096 : ui32, data = array<i32: -2147483639>, opcode = 0 : i32, stream_id = 0 : i32}
      aiex.control_packet {address = 258340 : ui32, data = array<i32: -2147483648>, opcode = 0 : i32, stream_id = 0 : i32}
      aiex.control_packet {address = 258064 : ui32, data = array<i32: -2147483634>, opcode = 0 : i32, stream_id = 0 : i32}
      aiex.control_packet {address = 258360 : ui32, data = array<i32: -2147483648>, opcode = 0 : i32, stream_id = 0 : i32}
      aiex.control_packet {address = 258056 : ui32, data = array<i32: -1073741755>, opcode = 0 : i32, stream_id = 0 : i32}
      aiex.control_packet {address = 258304 : ui32, data = array<i32: -1073741824>, opcode = 0 : i32, stream_id = 0 : i32}
      aiex.control_packet {address = 258560 : ui32, data = array<i32: 253690165>, opcode = 0 : i32, stream_id = 0 : i32}
      aiex.control_packet {address = 1769520 : ui32, data = array<i32: -2147483640>, opcode = 0 : i32, stream_id = 0 : i32}
      aiex.control_packet {address = 1769760 : ui32, data = array<i32: -2147483648>, opcode = 0 : i32, stream_id = 0 : i32}
      aiex.control_packet {address = 1769516 : ui32, data = array<i32: -2147483641>, opcode = 0 : i32, stream_id = 0 : i32}
      aiex.control_packet {address = 1769756 : ui32, data = array<i32: -2147483648>, opcode = 0 : i32, stream_id = 0 : i32}
      aiex.control_packet {address = 1769500 : ui32, data = array<i32: -2147483635>, opcode = 0 : i32, stream_id = 0 : i32}
      aiex.control_packet {address = 1769780 : ui32, data = array<i32: -2147483648>, opcode = 0 : i32, stream_id = 0 : i32}
      aiex.control_packet {address = 2355212 : ui32, data = array<i32: -2147483642>, opcode = 0 : i32, stream_id = 0 : i32}
      aiex.control_packet {address = 2355480 : ui32, data = array<i32: -2147483648>, opcode = 0 : i32, stream_id = 0 : i32}
      aiex.control_packet {address = 2355204 : ui32, data = array<i32: -2147483642>, opcode = 0 : i32, stream_id = 0 : i32}
      aiex.control_packet {address = 2355480 : ui32, data = array<i32: -2147483648>, opcode = 0 : i32, stream_id = 0 : i32}
      aiex.control_packet {address = 2355208 : ui32, data = array<i32: -2147483643>, opcode = 0 : i32, stream_id = 0 : i32}
      aiex.control_packet {address = 2355476 : ui32, data = array<i32: -2147483648>, opcode = 0 : i32, stream_id = 0 : i32}
      aiex.control_packet {address = 2355220 : ui32, data = array<i32: -2147483647>, opcode = 0 : i32, stream_id = 0 : i32}
      aiex.control_packet {address = 2355460 : ui32, data = array<i32: -2147483648>, opcode = 0 : i32, stream_id = 0 : i32}
      aiex.control_packet {address = 126976 : ui32, data = array<i32: 1024>, opcode = 0 : i32, stream_id = 0 : i32}
      aiex.control_packet {address = 126976 : ui32, data = array<i32: 16384>, opcode = 0 : i32, stream_id = 0 : i32}
      aiex.control_packet {address = 126980 : ui32, data = array<i32: 16>, opcode = 0 : i32, stream_id = 0 : i32}
      aiex.control_packet {address = 2301952 : ui32, data = array<i32: 1>, opcode = 0 : i32, stream_id = 0 : i32}
    }
  }
}
