module {
  aie.device(npu1_1col) {
    memref.global "private" constant @blockwrite_data : memref<9xi32> = dense<[608, 0, 0, 0, 0, 0, 0, 0, 8]>
    memref.global "private" constant @blockwrite_data_0 : memref<236xi32> = dense<"0x43100038C30100005500000800005500000C0000990731169501404000C00100010001000100010055F87FFCFFFF5976301F2F780000B20462000000000000004D768CDCF0DF01000100010001000100010019140010010001000100010001009908B1149501402000C00100010001000100010059763E1803204B24000000001501007000000100010001000100010015010088010099063018010001000100C00300880300000000000000000000000100010001000100010001001908001001000100010001000100010019000000950000680000010001000100010001001920033899C2FF0F15010010010043C86300E8173E000100010001001900000015010010010043486700E8173E00010001000100370100000000000000000000BB10B03800000008E6075580E3080000550068000700BB10009AC80100000000C0030010A818010000000000000000001DFD0178A60201000100010001000100C00300880300000000000000A0220000C00300384F06000000000078A6020000C0030088030000000000000000000000C0030088030000000000000000000000C0030088030000000000000000000000C0030088030000000000000000000000C0030088030000000000000000000000198C30166D9E0C00A02201000100010001001501002001004348630028100000010001000100BB8E0300000000000000D9C2FF0795000020010001000100010001007F000000790004CD00E0FF07000019121210191800100100010001000100C0030088030000000000000000000000010001000100010001000100191210101918001001000100010001001900000059960B185500000C000059763E185500800B000043280B9E3F8C2F009501407001C01920033819ECFF0F9942FE0F19C0FE0F2F780000380040008046FF070000D98603070100010001000100010001001914001059768E1D01000100010001009968F1159501405001C001000100010001002F78000038004000000000000000D942FE0759EEFE0759ECFF07D97EFF070100010001001918001001000100010001007F0000007100000000E0FF070000BB10101AD00100480001BB100042D00100C850003B299B24AA173E4050005936061C59F6841C55A0660C00000100010079F6C1189920C41043288B98F7300700D98E0307D986FB07010001000100010001001954001001000100010019000000C00300280B8002000000000000000000198CE71459160A1801000100010001005916791A1918001043280B8C01212300010001000100BB8E0300000000000000">
    memref.global "private" constant @blockwrite_data_1 : memref<6xi32> = dense<[4195328, 0, 0, 0, 0, 100941792]>
    memref.global "private" constant @blockwrite_data_2 : memref<6xi32> = dense<[37749760, 1074266112, 0, 0, 0, 235167715]>
    memref.global "private" constant @blockwrite_data_3 : memref<8xi32> = dense<[1024, 655360, 0, 0, 0, 0, 0, -2126381248]>
    memref.global "private" constant @blockwrite_data_4 : memref<8xi32> = dense<[-2147482624, 1703936, 0, 0, 0, 0, 0, -2126446783]>
    memref.global "private" constant @blockwrite_data_5 : memref<8xi32> = dense<[-2130705408, 25823232, 0, 0, 0, 0, 0, -2126315709]>
    memref.global "private" constant @blockwrite_data_6 : memref<8xi32> = dense<[1024, 26871808, 0, 0, 0, 0, 0, -2126250174]>
    aiex.runtime_sequence() {
      aiex.control_packet {address = 2301952 : ui32, data = array<i32: 0>, opcode = 0 : i32, stream_id = 0 : i32}
      aiex.control_packet {address = 2219536 : ui32, data = array<i32: 2>, opcode = 0 : i32, stream_id = 0 : i32}
      aiex.control_packet {address = 2219544 : ui32, data = array<i32: 2>, opcode = 0 : i32, stream_id = 0 : i32}
      aiex.control_packet {address = 2219520 : ui32, data = array<i32: 2>, opcode = 0 : i32, stream_id = 0 : i32}
      aiex.control_packet {address = 2219528 : ui32, data = array<i32: 2>, opcode = 0 : i32, stream_id = 0 : i32}
      aiex.control_packet {address = 2114560 : ui32, data = array<i32: 608, 0, 0, 0>, opcode = 0 : i32, stream_id = 0 : i32}
      aiex.control_packet {address = 2114576 : ui32, data = array<i32: 0, 0, 0, 0>, opcode = 0 : i32, stream_id = 0 : i32}
      aiex.control_packet {address = 2114592 : ui32, data = array<i32: 8>, opcode = 0 : i32, stream_id = 0 : i32}
      aiex.control_packet {address = 2228224 : ui32, data = array<i32: 939528259, 451, 134217813, 5570560>, opcode = 0 : i32, stream_id = 0 : i32}
      aiex.control_packet {address = 2228240 : ui32, data = array<i32: 3072, 372311961, 1077936533, 114688>, opcode = 0 : i32, stream_id = 0 : i32}
      aiex.control_packet {address = 2228256 : ui32, data = array<i32: 65537, 65537, -58722219, 1985609727>, opcode = 0 : i32, stream_id = 0 : i32}
      aiex.control_packet {address = 2228272 : ui32, data = array<i32: 2016354096, 78774272, 98, 0>, opcode = 0 : i32, stream_id = 0 : i32}
      aiex.control_packet {address = 2228288 : ui32, data = array<i32: -594774451, 122864, 65537, 65537>, opcode = 0 : i32, stream_id = 0 : i32}
      aiex.control_packet {address = 2228304 : ui32, data = array<i32: 337182721, 69632, 65537, 65537>, opcode = 0 : i32, stream_id = 0 : i32}
      aiex.control_packet {address = 2228320 : ui32, data = array<i32: 347146393, 541065621, 114688, 65537>, opcode = 0 : i32, stream_id = 0 : i32}
      aiex.control_packet {address = 2228336 : ui32, data = array<i32: 65537, 406746713, 608903171, 0>, opcode = 0 : i32, stream_id = 0 : i32}
      aiex.control_packet {address = 2228352 : ui32, data = array<i32: 1879048469, 65536, 65537, 65537>, opcode = 0 : i32, stream_id = 0 : i32}
      aiex.control_packet {address = 2228368 : ui32, data = array<i32: -2013265643, 110690305, 71728, 65537>, opcode = 0 : i32, stream_id = 0 : i32}
      aiex.control_packet {address = 2228384 : ui32, data = array<i32: -2013264960, 3, 0, 0>, opcode = 0 : i32, stream_id = 0 : i32}
      aiex.control_packet {address = 2228400 : ui32, data = array<i32: 65537, 65537, 65537, 268437529>, opcode = 0 : i32, stream_id = 0 : i32}
      aiex.control_packet {address = 2228416 : ui32, data = array<i32: 65537, 65537, 65537, 25>, opcode = 0 : i32, stream_id = 0 : i32}
      aiex.control_packet {address = 2228432 : ui32, data = array<i32: 1744830613, 65536, 65537, 65537>, opcode = 0 : i32, stream_id = 0 : i32}
      aiex.control_packet {address = 2228448 : ui32, data = array<i32: 939728921, 268419737, 268435733, -935133183>, opcode = 0 : i32, stream_id = 0 : i32}
      aiex.control_packet {address = 2228464 : ui32, data = array<i32: 401080419, 65598, 65537, 25>, opcode = 0 : i32, stream_id = 0 : i32}
      aiex.control_packet {address = 2228480 : ui32, data = array<i32: 268435733, 1212350465, 401080423, 65598>, opcode = 0 : i32, stream_id = 0 : i32}
      aiex.control_packet {address = 2228496 : ui32, data = array<i32: 65537, 311, 0, 0>, opcode = 0 : i32, stream_id = 0 : i32}
      aiex.control_packet {address = 2228512 : ui32, data = array<i32: 951062715, 134217728, -2141911066, 2275>, opcode = 0 : i32, stream_id = 0 : i32}
      aiex.control_packet {address = 2228528 : ui32, data = array<i32: 6815829, 280690695, 29923840, 0>, opcode = 0 : i32, stream_id = 0 : i32}
      aiex.control_packet {address = 2228544 : ui32, data = array<i32: 268436416, 71848, 0, 0>, opcode = 0 : i32, stream_id = 0 : i32}
      aiex.control_packet {address = 2228560 : ui32, data = array<i32: 2013396253, 66214, 65537, 65537>, opcode = 0 : i32, stream_id = 0 : i32}
      aiex.control_packet {address = 2228576 : ui32, data = array<i32: -2013264960, 3, 0, 8864>, opcode = 0 : i32, stream_id = 0 : i32}
      aiex.control_packet {address = 2228592 : ui32, data = array<i32: 939525056, 1615, 2013265920, 678>, opcode = 0 : i32, stream_id = 0 : i32}
      aiex.control_packet {address = 2228608 : ui32, data = array<i32: -2013264960, 3, 0, 0>, opcode = 0 : i32, stream_id = 0 : i32}
      aiex.control_packet {address = 2228624 : ui32, data = array<i32: -2013264960, 3, 0, 0>, opcode = 0 : i32, stream_id = 0 : i32}
      aiex.control_packet {address = 2228640 : ui32, data = array<i32: -2013264960, 3, 0, 0>, opcode = 0 : i32, stream_id = 0 : i32}
      aiex.control_packet {address = 2228656 : ui32, data = array<i32: -2013264960, 3, 0, 0>, opcode = 0 : i32, stream_id = 0 : i32}
      aiex.control_packet {address = 2228672 : ui32, data = array<i32: -2013264960, 3, 0, 0>, opcode = 0 : i32, stream_id = 0 : i32}
      aiex.control_packet {address = 2228688 : ui32, data = array<i32: 372280345, 826989, 74400, 65537>, opcode = 0 : i32, stream_id = 0 : i32}
      aiex.control_packet {address = 2228704 : ui32, data = array<i32: 18153473, 73728, 6506563, 4136>, opcode = 0 : i32, stream_id = 0 : i32}
      aiex.control_packet {address = 2228720 : ui32, data = array<i32: 65537, -1900347391, 3, 0>, opcode = 0 : i32, stream_id = 0 : i32}
      aiex.control_packet {address = 2228736 : ui32, data = array<i32: 134202073, 536871061, 65537, 65537>, opcode = 0 : i32, stream_id = 0 : i32}
      aiex.control_packet {address = 2228752 : ui32, data = array<i32: 8323073, 7929856, -536818428, 2047>, opcode = 0 : i32, stream_id = 0 : i32}
      aiex.control_packet {address = 2228768 : ui32, data = array<i32: 269619737, 268441625, 65537, 65537>, opcode = 0 : i32, stream_id = 0 : i32}
      aiex.control_packet {address = 2228784 : ui32, data = array<i32: -2013264960, 3, 0, 0>, opcode = 0 : i32, stream_id = 0 : i32}
      aiex.control_packet {address = 2228800 : ui32, data = array<i32: 65537, 65537, 65537, 269488665>, opcode = 0 : i32, stream_id = 0 : i32}
      aiex.control_packet {address = 2228816 : ui32, data = array<i32: 268441625, 65537, 65537, 25>, opcode = 0 : i32, stream_id = 0 : i32}
      aiex.control_packet {address = 2228832 : ui32, data = array<i32: 403412569, 201326677, 1985544192, 5576766>, opcode = 0 : i32, stream_id = 0 : i32}
      aiex.control_packet {address = 2228848 : ui32, data = array<i32: 2944, -1643435965, 3116095, 1883242901>, opcode = 0 : i32, stream_id = 0 : i32}
      aiex.control_packet {address = 2228864 : ui32, data = array<i32: 538558465, -333891581, 1117327359, -1072099330>, opcode = 0 : i32, stream_id = 0 : i32}
      aiex.control_packet {address = 2228880 : ui32, data = array<i32: 2016350206, 3670016, 1182793792, 2047>, opcode = 0 : i32, stream_id = 0 : i32}
      aiex.control_packet {address = 2228896 : ui32, data = array<i32: 117671641, 65537, 65537, 65537>, opcode = 0 : i32, stream_id = 0 : i32}
      aiex.control_packet {address = 2228912 : ui32, data = array<i32: 268440601, 495875673, 65537, 65537>, opcode = 0 : i32, stream_id = 0 : i32}
      aiex.control_packet {address = 2228928 : ui32, data = array<i32: 368142489, 1346371989, 114689, 65537>, opcode = 0 : i32, stream_id = 0 : i32}
      aiex.control_packet {address = 2228944 : ui32, data = array<i32: 2016346113, 3670016, 64, 0>, opcode = 0 : i32, stream_id = 0 : i32}
      aiex.control_packet {address = 2228960 : ui32, data = array<i32: 134103769, 134147673, 134212697, 134184665>, opcode = 0 : i32, stream_id = 0 : i32}
      aiex.control_packet {address = 2228976 : ui32, data = array<i32: 65537, 404291585, 69632, 65537>, opcode = 0 : i32, stream_id = 0 : i32}
      aiex.control_packet {address = 2228992 : ui32, data = array<i32: 8323073, 7405568, -536870912, 2047>, opcode = 0 : i32, stream_id = 0 : i32}
      aiex.control_packet {address = 2229008 : ui32, data = array<i32: 437260475, 1207960016, 280690944, 30425600>, opcode = 0 : i32, stream_id = 0 : i32}
      aiex.control_packet {address = 2229024 : ui32, data = array<i32: 5294080, 614148411, 1077811114, 911802448>, opcode = 0 : i32, stream_id = 0 : i32}
      aiex.control_packet {address = 2229040 : ui32, data = array<i32: -161932282, -1605034876, 3174, 65537>, opcode = 0 : i32, stream_id = 0 : i32}
      aiex.control_packet {address = 2229056 : ui32, data = array<i32: 415364729, 281288857, -1735710653, 471287>, opcode = 0 : i32, stream_id = 0 : i32}
      aiex.control_packet {address = 2229072 : ui32, data = array<i32: 117673689, 133924569, 65537, 65537>, opcode = 0 : i32, stream_id = 0 : i32}
      aiex.control_packet {address = 2229088 : ui32, data = array<i32: 1410924545, 69632, 65537, 25>, opcode = 0 : i32, stream_id = 0 : i32}
      aiex.control_packet {address = 2229104 : ui32, data = array<i32: 671089600, 163851, 0, 0>, opcode = 0 : i32, stream_id = 0 : i32}
      aiex.control_packet {address = 2229120 : ui32, data = array<i32: 350719001, 403314265, 65537, 65537>, opcode = 0 : i32, stream_id = 0 : i32}
      aiex.control_packet {address = 2229136 : ui32, data = array<i32: 444143193, 268441625, -1945425853, 2302209>, opcode = 0 : i32, stream_id = 0 : i32}
      aiex.control_packet {address = 2229152 : ui32, data = array<i32: 65537, -1900347391, 3, 0>, opcode = 0 : i32, stream_id = 0 : i32}
      aiex.control_packet {address = 2219536 : ui32, data = array<i32: 0>, opcode = 0 : i32, stream_id = 0 : i32}
      aiex.control_packet {address = 2219544 : ui32, data = array<i32: 0>, opcode = 0 : i32, stream_id = 0 : i32}
      aiex.control_packet {address = 2219520 : ui32, data = array<i32: 0>, opcode = 0 : i32, stream_id = 0 : i32}
      aiex.control_packet {address = 2219528 : ui32, data = array<i32: 0>, opcode = 0 : i32, stream_id = 0 : i32}
      aiex.control_packet {address = 2301952 : ui32, data = array<i32: 2>, opcode = 0 : i32, stream_id = 0 : i32}
      aiex.control_packet {address = 2301952 : ui32, data = array<i32: 0>, opcode = 0 : i32, stream_id = 0 : i32}
      aiex.control_packet {address = 2224128 : ui32, data = array<i32: 0>, opcode = 0 : i32, stream_id = 0 : i32}
      aiex.control_packet {address = 2224144 : ui32, data = array<i32: 0>, opcode = 0 : i32, stream_id = 0 : i32}
      aiex.control_packet {address = 2224160 : ui32, data = array<i32: 0>, opcode = 0 : i32, stream_id = 0 : i32}
      aiex.control_packet {address = 2224176 : ui32, data = array<i32: 0>, opcode = 0 : i32, stream_id = 0 : i32}
      aiex.control_packet {address = 2224192 : ui32, data = array<i32: 0>, opcode = 0 : i32, stream_id = 0 : i32}
      aiex.control_packet {address = 2224208 : ui32, data = array<i32: 0>, opcode = 0 : i32, stream_id = 0 : i32}
      aiex.control_packet {address = 2224224 : ui32, data = array<i32: 0>, opcode = 0 : i32, stream_id = 0 : i32}
      aiex.control_packet {address = 2224240 : ui32, data = array<i32: 0>, opcode = 0 : i32, stream_id = 0 : i32}
      aiex.control_packet {address = 2224256 : ui32, data = array<i32: 0>, opcode = 0 : i32, stream_id = 0 : i32}
      aiex.control_packet {address = 2224272 : ui32, data = array<i32: 0>, opcode = 0 : i32, stream_id = 0 : i32}
      aiex.control_packet {address = 2224288 : ui32, data = array<i32: 0>, opcode = 0 : i32, stream_id = 0 : i32}
      aiex.control_packet {address = 2224304 : ui32, data = array<i32: 0>, opcode = 0 : i32, stream_id = 0 : i32}
      aiex.control_packet {address = 2224320 : ui32, data = array<i32: 0>, opcode = 0 : i32, stream_id = 0 : i32}
      aiex.control_packet {address = 2224336 : ui32, data = array<i32: 0>, opcode = 0 : i32, stream_id = 0 : i32}
      aiex.control_packet {address = 2224352 : ui32, data = array<i32: 0>, opcode = 0 : i32, stream_id = 0 : i32}
      aiex.control_packet {address = 2224368 : ui32, data = array<i32: 0>, opcode = 0 : i32, stream_id = 0 : i32}
      aiex.control_packet {address = 2224128 : ui32, data = array<i32: 1>, opcode = 0 : i32, stream_id = 0 : i32}
      aiex.control_packet {address = 2224144 : ui32, data = array<i32: 0>, opcode = 0 : i32, stream_id = 0 : i32}
      aiex.control_packet {address = 2224160 : ui32, data = array<i32: 1>, opcode = 0 : i32, stream_id = 0 : i32}
      aiex.control_packet {address = 2224176 : ui32, data = array<i32: 0>, opcode = 0 : i32, stream_id = 0 : i32}
      aiex.control_packet {address = 1835008 : ui32, data = array<i32: 1>, opcode = 0 : i32, stream_id = 0 : i32}
      aiex.control_packet {address = 1835024 : ui32, data = array<i32: 0>, opcode = 0 : i32, stream_id = 0 : i32}
      aiex.control_packet {address = 1835040 : ui32, data = array<i32: 1>, opcode = 0 : i32, stream_id = 0 : i32}
      aiex.control_packet {address = 1835056 : ui32, data = array<i32: 0>, opcode = 0 : i32, stream_id = 0 : i32}
      aiex.control_packet {address = 2215936 : ui32, data = array<i32: 4195328, 0, 0, 0>, opcode = 0 : i32, stream_id = 0 : i32}
      aiex.control_packet {address = 2215952 : ui32, data = array<i32: 0, 100941792>, opcode = 0 : i32, stream_id = 0 : i32}
      aiex.control_packet {address = 2215968 : ui32, data = array<i32: 37749760, 1074266112, 0, 0>, opcode = 0 : i32, stream_id = 0 : i32}
      aiex.control_packet {address = 2215984 : ui32, data = array<i32: 0, 235167715>, opcode = 0 : i32, stream_id = 0 : i32}
      aiex.control_packet {address = 2219524 : ui32, data = array<i32: 0>, opcode = 0 : i32, stream_id = 0 : i32}
      aiex.control_packet {address = 2219520 : ui32, data = array<i32: 1>, opcode = 0 : i32, stream_id = 0 : i32}
      aiex.control_packet {address = 2219540 : ui32, data = array<i32: 1>, opcode = 0 : i32, stream_id = 0 : i32}
      aiex.control_packet {address = 2219536 : ui32, data = array<i32: 1>, opcode = 0 : i32, stream_id = 0 : i32}
      aiex.control_packet {address = 1703936 : ui32, data = array<i32: 1024, 655360, 0, 0>, opcode = 0 : i32, stream_id = 0 : i32}
      aiex.control_packet {address = 1703952 : ui32, data = array<i32: 0, 0, 0, -2126381248>, opcode = 0 : i32, stream_id = 0 : i32}
      aiex.control_packet {address = 1703968 : ui32, data = array<i32: -2147482624, 1703936, 0, 0>, opcode = 0 : i32, stream_id = 0 : i32}
      aiex.control_packet {address = 1703984 : ui32, data = array<i32: 0, 0, 0, -2126446783>, opcode = 0 : i32, stream_id = 0 : i32}
      aiex.control_packet {address = 1704704 : ui32, data = array<i32: -2130705408, 25823232, 0, 0>, opcode = 0 : i32, stream_id = 0 : i32}
      aiex.control_packet {address = 1704720 : ui32, data = array<i32: 0, 0, 0, -2126315709>, opcode = 0 : i32, stream_id = 0 : i32}
      aiex.control_packet {address = 1704736 : ui32, data = array<i32: 1024, 26871808, 0, 0>, opcode = 0 : i32, stream_id = 0 : i32}
      aiex.control_packet {address = 1704752 : ui32, data = array<i32: 0, 0, 0, -2126250174>, opcode = 0 : i32, stream_id = 0 : i32}
      aiex.control_packet {address = 1705476 : ui32, data = array<i32: 0>, opcode = 0 : i32, stream_id = 0 : i32}
      aiex.control_packet {address = 1705472 : ui32, data = array<i32: 1>, opcode = 0 : i32, stream_id = 0 : i32}
      aiex.control_packet {address = 1705524 : ui32, data = array<i32: 1>, opcode = 0 : i32, stream_id = 0 : i32}
      aiex.control_packet {address = 1705520 : ui32, data = array<i32: 1>, opcode = 0 : i32, stream_id = 0 : i32}
      aiex.control_packet {address = 1705532 : ui32, data = array<i32: 24>, opcode = 0 : i32, stream_id = 0 : i32}
      aiex.control_packet {address = 1705528 : ui32, data = array<i32: 1>, opcode = 0 : i32, stream_id = 0 : i32}
      aiex.control_packet {address = 1705484 : ui32, data = array<i32: 25>, opcode = 0 : i32, stream_id = 0 : i32}
      aiex.control_packet {address = 1705480 : ui32, data = array<i32: 1>, opcode = 0 : i32, stream_id = 0 : i32}
      aiex.control_packet {address = 258064 : ui32, data = array<i32: -1073741688>, opcode = 0 : i32, stream_id = 0 : i32}
      aiex.control_packet {address = 258056 : ui32, data = array<i32: -1073741756>, opcode = 0 : i32, stream_id = 0 : i32}
      aiex.control_packet {address = 258100 : ui32, data = array<i32: -1073741758>, opcode = 0 : i32, stream_id = 0 : i32}
      aiex.control_packet {address = 258112 : ui32, data = array<i32: -1073741757>, opcode = 0 : i32, stream_id = 0 : i32}
      aiex.control_packet {address = 258048 : ui32, data = array<i32: -1073741755>, opcode = 0 : i32, stream_id = 0 : i32}
      aiex.control_packet {address = 258324 : ui32, data = array<i32: -1073741824>, opcode = 0 : i32, stream_id = 0 : i32}
      aiex.control_packet {address = 258640 : ui32, data = array<i32: 455016754>, opcode = 0 : i32, stream_id = 0 : i32}
      aiex.control_packet {address = 258324 : ui32, data = array<i32: -1073741824>, opcode = 0 : i32, stream_id = 0 : i32}
      aiex.control_packet {address = 258644 : ui32, data = array<i32: 33947955>, opcode = 0 : i32, stream_id = 0 : i32}
      aiex.control_packet {address = 258324 : ui32, data = array<i32: -1073741824>, opcode = 0 : i32, stream_id = 0 : i32}
      aiex.control_packet {address = 258648 : ui32, data = array<i32: 253690165>, opcode = 0 : i32, stream_id = 0 : i32}
      aiex.control_packet {address = 258304 : ui32, data = array<i32: -1073741824>, opcode = 0 : i32, stream_id = 0 : i32}
      aiex.control_packet {address = 258560 : ui32, data = array<i32: 253690164>, opcode = 0 : i32, stream_id = 0 : i32}
      aiex.control_packet {address = 258368 : ui32, data = array<i32: -1073741824>, opcode = 0 : i32, stream_id = 0 : i32}
      aiex.control_packet {address = 258816 : ui32, data = array<i32: 35586304>, opcode = 0 : i32, stream_id = 0 : i32}
      aiex.control_packet {address = 1769472 : ui32, data = array<i32: -1073741685>, opcode = 0 : i32, stream_id = 0 : i32}
      aiex.control_packet {address = 1769476 : ui32, data = array<i32: -1073741686>, opcode = 0 : i32, stream_id = 0 : i32}
      aiex.control_packet {address = 1769508 : ui32, data = array<i32: -1073741815>, opcode = 0 : i32, stream_id = 0 : i32}
      aiex.control_packet {address = 1769520 : ui32, data = array<i32: -1073741755>, opcode = 0 : i32, stream_id = 0 : i32}
      aiex.control_packet {address = 1769536 : ui32, data = array<i32: -1073741816>, opcode = 0 : i32, stream_id = 0 : i32}
      aiex.control_packet {address = 1769496 : ui32, data = array<i32: -1073741756>, opcode = 0 : i32, stream_id = 0 : i32}
      aiex.control_packet {address = 1769760 : ui32, data = array<i32: -1073741824>, opcode = 0 : i32, stream_id = 0 : i32}
      aiex.control_packet {address = 1770112 : ui32, data = array<i32: 455016757>, opcode = 0 : i32, stream_id = 0 : i32}
      aiex.control_packet {address = 1769772 : ui32, data = array<i32: -1073741824>, opcode = 0 : i32, stream_id = 0 : i32}
      aiex.control_packet {address = 1770160 : ui32, data = array<i32: 438239540>, opcode = 0 : i32, stream_id = 0 : i32}
      aiex.control_packet {address = 1769772 : ui32, data = array<i32: -1073741824>, opcode = 0 : i32, stream_id = 0 : i32}
      aiex.control_packet {address = 1770164 : ui32, data = array<i32: 52363523>, opcode = 0 : i32, stream_id = 0 : i32}
      aiex.control_packet {address = 1769732 : ui32, data = array<i32: -1073741824>, opcode = 0 : i32, stream_id = 0 : i32}
      aiex.control_packet {address = 1770000 : ui32, data = array<i32: 35586305>, opcode = 0 : i32, stream_id = 0 : i32}
      aiex.control_packet {address = 1769780 : ui32, data = array<i32: -1073741824>, opcode = 0 : i32, stream_id = 0 : i32}
      aiex.control_packet {address = 1770192 : ui32, data = array<i32: 18809090>, opcode = 0 : i32, stream_id = 0 : i32}
      aiex.control_packet {address = 1769728 : ui32, data = array<i32: -1073741824>, opcode = 0 : i32, stream_id = 0 : i32}
      aiex.control_packet {address = 1769984 : ui32, data = array<i32: 2031872>, opcode = 0 : i32, stream_id = 0 : i32}
      aiex.control_packet {address = 2355204 : ui32, data = array<i32: -1073741688>, opcode = 0 : i32, stream_id = 0 : i32}
      aiex.control_packet {address = 2355220 : ui32, data = array<i32: -1073741815>, opcode = 0 : i32, stream_id = 0 : i32}
      aiex.control_packet {address = 2355212 : ui32, data = array<i32: -1073741755>, opcode = 0 : i32, stream_id = 0 : i32}
      aiex.control_packet {address = 2355480 : ui32, data = array<i32: -1073741824>, opcode = 0 : i32, stream_id = 0 : i32}
      aiex.control_packet {address = 2355808 : ui32, data = array<i32: 455016757>, opcode = 0 : i32, stream_id = 0 : i32}
      aiex.control_packet {address = 2355460 : ui32, data = array<i32: -1073741824>, opcode = 0 : i32, stream_id = 0 : i32}
      aiex.control_packet {address = 2355728 : ui32, data = array<i32: 18809089>, opcode = 0 : i32, stream_id = 0 : i32}
      aiex.control_packet {address = 2355496 : ui32, data = array<i32: -1073741824>, opcode = 0 : i32, stream_id = 0 : i32}
      aiex.control_packet {address = 2355872 : ui32, data = array<i32: 2031872>, opcode = 0 : i32, stream_id = 0 : i32}
      aiex.control_packet {address = 126976 : ui32, data = array<i32: 1024>, opcode = 0 : i32, stream_id = 0 : i32}
      aiex.control_packet {address = 126980 : ui32, data = array<i32: 16>, opcode = 0 : i32, stream_id = 0 : i32}
      aiex.control_packet {address = 2301952 : ui32, data = array<i32: 1>, opcode = 0 : i32, stream_id = 0 : i32}
    }
  }
}
