module {
  aie.device(npu1_1col) {
    %tile_0_0 = aie.tile(0, 0) {controller_id = #aie.packet_info<pkt_type = 0, pkt_id = 15>}
    %tile_0_1 = aie.tile(0, 1) {controller_id = #aie.packet_info<pkt_type = 0, pkt_id = 26>}
    %tile_0_2 = aie.tile(0, 2) {controller_id = #aie.packet_info<pkt_type = 0, pkt_id = 27>}
    memref.global "private" constant @blockwrite_data : memref<9xi32> = dense<[608, 0, 0, 0, 0, 0, 0, 0, 8]>
    memref.global "private" constant @blockwrite_data_0 : memref<236xi32> = dense<"0x43100038C30100005500000800005500000C0000990731169501404000C00100010001000100010055F87FFCFFFF5976301F2F780000B20462000000000000004D768CDCF0DF01000100010001000100010019140010010001000100010001009908B1149501402000C00100010001000100010059763E1803204B24000000001501007000000100010001000100010015010088010099063018010001000100C00300880300000000000000000000000100010001000100010001001908001001000100010001000100010019000000950000680000010001000100010001001920033899C2FF0F15010010010043C86300E8173E000100010001001900000015010010010043486700E8173E00010001000100370100000000000000000000BB10B03800000008E6075580E3080000550068000700BB10009AC80100000000C0030010A818010000000000000000001DFD0178A60201000100010001000100C00300880300000000000000A0220000C00300384F06000000000078A6020000C0030088030000000000000000000000C0030088030000000000000000000000C0030088030000000000000000000000C0030088030000000000000000000000C0030088030000000000000000000000198C30166D9E0C00A02201000100010001001501002001004348630028100000010001000100BB8E0300000000000000D9C2FF0795000020010001000100010001007F000000790004CD00E0FF07000019121210191800100100010001000100C0030088030000000000000000000000010001000100010001000100191210101918001001000100010001001900000059960B185500000C000059763E185500800B000043280B9E3F8C2F009501407001C01920033819ECFF0F9942FE0F19C0FE0F2F780000380040008046FF070000D98603070100010001000100010001001914001059768E1D01000100010001009968F1159501405001C001000100010001002F78000038004000000000000000D942FE0759EEFE0759ECFF07D97EFF070100010001001918001001000100010001007F0000007100000000E0FF070000BB10101AD00100480001BB100042D00100C850003B299B24AA173E4050005936061C59F6841C55A0660C00000100010079F6C1189920C41043288B98F7300700D98E0307D986FB07010001000100010001001954001001000100010019000000C00300280B8002000000000000000000198CE71459160A1801000100010001005916791A1918001043280B8C01212300010001000100BB8E0300000000000000">
    memref.global "private" constant @blockwrite_data_1 : memref<6xi32> = dense<[4195328, 0, 0, 0, 0, 100941792]>
    memref.global "private" constant @blockwrite_data_2 : memref<6xi32> = dense<[37749760, 1074266112, 0, 0, 0, 235167715]>
    memref.global "private" constant @blockwrite_data_3 : memref<8xi32> = dense<[1024, 655360, 0, 0, 0, 0, 0, -2126381248]>
    memref.global "private" constant @blockwrite_data_4 : memref<8xi32> = dense<[-2147482624, 1703936, 0, 0, 0, 0, 0, -2126446783]>
    memref.global "private" constant @blockwrite_data_5 : memref<8xi32> = dense<[-2130705408, 25823232, 0, 0, 0, 0, 0, -2126315709]>
    memref.global "private" constant @blockwrite_data_6 : memref<8xi32> = dense<[1024, 26871808, 0, 0, 0, 0, 0, -2126250174]>
    memref.global "private" constant @blockwrite_data_7 : memref<8xi32> = dense<[2, 0, 1087897600, 0, -2147483648, 0, 0, 33554432]>
    memref.global "private" constant @blockwrite_data_8 : memref<8xi32> = dense<[2, 8, 1087897600, 0, -2147483648, 0, 0, 33554432]>
    memref.global "private" constant @blockwrite_data_9 : memref<8xi32> = dense<[2, 16, 1087897600, 0, -2147483648, 0, 0, 33554432]>
    memref.global "private" constant @blockwrite_data_10 : memref<8xi32> = dense<[2, 24, 1087897600, 0, -2147483648, 0, 0, 33554432]>
    memref.global "private" constant @blockwrite_data_11 : memref<8xi32> = dense<[2, 32, 1087897600, 0, -2147483648, 0, 0, 33554432]>
    memref.global "private" constant @blockwrite_data_12 : memref<8xi32> = dense<[5, 40, 1087897600, 0, -2147483648, 0, 0, 33554432]>
    memref.global "private" constant @blockwrite_data_13 : memref<8xi32> = dense<[5, 60, 1087897600, 0, -2147483648, 0, 0, 33554432]>
    memref.global "private" constant @blockwrite_data_14 : memref<8xi32> = dense<[2, 80, 1087897600, 0, -2147483648, 0, 0, 33554432]>
    memref.global "private" constant @blockwrite_data_15 : memref<8xi32> = dense<[5, 88, 1087897600, 0, -2147483648, 0, 0, 33554432]>
    memref.global "private" constant @blockwrite_data_16 : memref<8xi32> = dense<[5, 108, 1087897600, 0, -2147483648, 0, 0, 33554432]>
    memref.global "private" constant @blockwrite_data_17 : memref<8xi32> = dense<[5, 128, 1087897600, 0, -2147483648, 0, 0, 33554432]>
    memref.global "private" constant @blockwrite_data_18 : memref<8xi32> = dense<[5, 148, 1087897600, 0, -2147483648, 0, 0, 33554432]>
    memref.global "private" constant @blockwrite_data_19 : memref<8xi32> = dense<[5, 168, 1087897600, 0, -2147483648, 0, 0, 33554432]>
    memref.global "private" constant @blockwrite_data_20 : memref<8xi32> = dense<[5, 188, 1087897600, 0, -2147483648, 0, 0, 33554432]>
    memref.global "private" constant @blockwrite_data_21 : memref<8xi32> = dense<[5, 208, 1087897600, 0, -2147483648, 0, 0, 33554432]>
    memref.global "private" constant @blockwrite_data_22 : memref<8xi32> = dense<[5, 228, 1087897600, 0, -2147483648, 0, 0, 33554432]>
    memref.global "private" constant @blockwrite_data_23 : memref<8xi32> = dense<[5, 248, 1087897600, 0, -2147483648, 0, 0, 33554432]>
    memref.global "private" constant @blockwrite_data_24 : memref<8xi32> = dense<[5, 268, 1087897600, 0, -2147483648, 0, 0, 33554432]>
    memref.global "private" constant @blockwrite_data_25 : memref<8xi32> = dense<[5, 288, 1087897600, 0, -2147483648, 0, 0, 33554432]>
    memref.global "private" constant @blockwrite_data_26 : memref<8xi32> = dense<[5, 308, 1087897600, 0, -2147483648, 0, 0, 33554432]>
    memref.global "private" constant @blockwrite_data_27 : memref<8xi32> = dense<[5, 328, 1087897600, 0, -2147483648, 0, 0, 33554432]>
    memref.global "private" constant @blockwrite_data_28 : memref<8xi32> = dense<[5, 348, 1087897600, 0, -2147483648, 0, 0, 33554432]>
    memref.global "private" constant @blockwrite_data_29 : memref<8xi32> = dense<[5, 368, 1087897600, 0, -2147483648, 0, 0, 33554432]>
    memref.global "private" constant @blockwrite_data_30 : memref<8xi32> = dense<[5, 388, 1087897600, 0, -2147483648, 0, 0, 33554432]>
    memref.global "private" constant @blockwrite_data_31 : memref<8xi32> = dense<[5, 408, 1087897600, 0, -2147483648, 0, 0, 33554432]>
    memref.global "private" constant @blockwrite_data_32 : memref<8xi32> = dense<[5, 428, 1087897600, 0, -2147483648, 0, 0, 33554432]>
    memref.global "private" constant @blockwrite_data_33 : memref<8xi32> = dense<[5, 448, 1087897600, 0, -2147483648, 0, 0, 33554432]>
    memref.global "private" constant @blockwrite_data_34 : memref<8xi32> = dense<[5, 468, 1087897600, 0, -2147483648, 0, 0, 33554432]>
    memref.global "private" constant @blockwrite_data_35 : memref<8xi32> = dense<[5, 488, 1087897600, 0, -2147483648, 0, 0, 33554432]>
    memref.global "private" constant @blockwrite_data_36 : memref<8xi32> = dense<[5, 508, 1087897600, 0, -2147483648, 0, 0, 33554432]>
    memref.global "private" constant @blockwrite_data_37 : memref<8xi32> = dense<[5, 528, 1087897600, 0, -2147483648, 0, 0, 33554432]>
    memref.global "private" constant @blockwrite_data_38 : memref<8xi32> = dense<[5, 548, 1087897600, 0, -2147483648, 0, 0, 33554432]>
    memref.global "private" constant @blockwrite_data_39 : memref<8xi32> = dense<[5, 568, 1087897600, 0, -2147483648, 0, 0, 33554432]>
    memref.global "private" constant @blockwrite_data_40 : memref<8xi32> = dense<[5, 588, 1087897600, 0, -2147483648, 0, 0, 33554432]>
    memref.global "private" constant @blockwrite_data_41 : memref<8xi32> = dense<[5, 608, 1087897600, 0, -2147483648, 0, 0, 33554432]>
    memref.global "private" constant @blockwrite_data_42 : memref<8xi32> = dense<[5, 628, 1087897600, 0, -2147483648, 0, 0, 33554432]>
    memref.global "private" constant @blockwrite_data_43 : memref<8xi32> = dense<[5, 648, 1087897600, 0, -2147483648, 0, 0, 33554432]>
    memref.global "private" constant @blockwrite_data_44 : memref<8xi32> = dense<[5, 668, 1087897600, 0, -2147483648, 0, 0, 33554432]>
    memref.global "private" constant @blockwrite_data_45 : memref<8xi32> = dense<[5, 688, 1087897600, 0, -2147483648, 0, 0, 33554432]>
    memref.global "private" constant @blockwrite_data_46 : memref<8xi32> = dense<[5, 708, 1087897600, 0, -2147483648, 0, 0, 33554432]>
    memref.global "private" constant @blockwrite_data_47 : memref<8xi32> = dense<[5, 728, 1087897600, 0, -2147483648, 0, 0, 33554432]>
    memref.global "private" constant @blockwrite_data_48 : memref<8xi32> = dense<[5, 748, 1087897600, 0, -2147483648, 0, 0, 33554432]>
    memref.global "private" constant @blockwrite_data_49 : memref<8xi32> = dense<[5, 768, 1087897600, 0, -2147483648, 0, 0, 33554432]>
    memref.global "private" constant @blockwrite_data_50 : memref<8xi32> = dense<[5, 788, 1087897600, 0, -2147483648, 0, 0, 33554432]>
    memref.global "private" constant @blockwrite_data_51 : memref<8xi32> = dense<[5, 808, 1087897600, 0, -2147483648, 0, 0, 33554432]>
    memref.global "private" constant @blockwrite_data_52 : memref<8xi32> = dense<[5, 828, 1087897600, 0, -2147483648, 0, 0, 33554432]>
    memref.global "private" constant @blockwrite_data_53 : memref<8xi32> = dense<[5, 848, 1087897600, 0, -2147483648, 0, 0, 33554432]>
    memref.global "private" constant @blockwrite_data_54 : memref<8xi32> = dense<[5, 868, 1087897600, 0, -2147483648, 0, 0, 33554432]>
    memref.global "private" constant @blockwrite_data_55 : memref<8xi32> = dense<[5, 888, 1087897600, 0, -2147483648, 0, 0, 33554432]>
    memref.global "private" constant @blockwrite_data_56 : memref<8xi32> = dense<[5, 908, 1087897600, 0, -2147483648, 0, 0, 33554432]>
    memref.global "private" constant @blockwrite_data_57 : memref<8xi32> = dense<[5, 928, 1087897600, 0, -2147483648, 0, 0, 33554432]>
    memref.global "private" constant @blockwrite_data_58 : memref<8xi32> = dense<[5, 948, 1087897600, 0, -2147483648, 0, 0, 33554432]>
    memref.global "private" constant @blockwrite_data_59 : memref<8xi32> = dense<[5, 968, 1087897600, 0, -2147483648, 0, 0, 33554432]>
    memref.global "private" constant @blockwrite_data_60 : memref<8xi32> = dense<[5, 988, 1087897600, 0, -2147483648, 0, 0, 33554432]>
    memref.global "private" constant @blockwrite_data_61 : memref<8xi32> = dense<[5, 1008, 1087897600, 0, -2147483648, 0, 0, 33554432]>
    memref.global "private" constant @blockwrite_data_62 : memref<8xi32> = dense<[5, 1028, 1087897600, 0, -2147483648, 0, 0, 33554432]>
    memref.global "private" constant @blockwrite_data_63 : memref<8xi32> = dense<[5, 1048, 1087897600, 0, -2147483648, 0, 0, 33554432]>
    memref.global "private" constant @blockwrite_data_64 : memref<8xi32> = dense<[5, 1068, 1087897600, 0, -2147483648, 0, 0, 33554432]>
    memref.global "private" constant @blockwrite_data_65 : memref<8xi32> = dense<[5, 1088, 1087897600, 0, -2147483648, 0, 0, 33554432]>
    memref.global "private" constant @blockwrite_data_66 : memref<8xi32> = dense<[5, 1108, 1087897600, 0, -2147483648, 0, 0, 33554432]>
    memref.global "private" constant @blockwrite_data_67 : memref<8xi32> = dense<[5, 1128, 1087897600, 0, -2147483648, 0, 0, 33554432]>
    memref.global "private" constant @blockwrite_data_68 : memref<8xi32> = dense<[5, 1148, 1087897600, 0, -2147483648, 0, 0, 33554432]>
    memref.global "private" constant @blockwrite_data_69 : memref<8xi32> = dense<[5, 1168, 1087897600, 0, -2147483648, 0, 0, 33554432]>
    memref.global "private" constant @blockwrite_data_70 : memref<8xi32> = dense<[5, 1188, 1087897600, 0, -2147483648, 0, 0, 33554432]>
    memref.global "private" constant @blockwrite_data_71 : memref<8xi32> = dense<[5, 1208, 1087897600, 0, -2147483648, 0, 0, 33554432]>
    memref.global "private" constant @blockwrite_data_72 : memref<8xi32> = dense<[5, 1228, 1087897600, 0, -2147483648, 0, 0, 33554432]>
    memref.global "private" constant @blockwrite_data_73 : memref<8xi32> = dense<[5, 1248, 1087897600, 0, -2147483648, 0, 0, 33554432]>
    memref.global "private" constant @blockwrite_data_74 : memref<8xi32> = dense<[2, 1268, 1087897600, 0, -2147483648, 0, 0, 33554432]>
    memref.global "private" constant @blockwrite_data_75 : memref<8xi32> = dense<[2, 1276, 1087897600, 0, -2147483648, 0, 0, 33554432]>
    memref.global "private" constant @blockwrite_data_76 : memref<8xi32> = dense<[2, 1284, 1087897600, 0, -2147483648, 0, 0, 33554432]>
    memref.global "private" constant @blockwrite_data_77 : memref<8xi32> = dense<[2, 1292, 1087897600, 0, -2147483648, 0, 0, 33554432]>
    memref.global "private" constant @blockwrite_data_78 : memref<8xi32> = dense<[2, 1300, 1087897600, 0, -2147483648, 0, 0, 33554432]>
    memref.global "private" constant @blockwrite_data_79 : memref<8xi32> = dense<[2, 1308, 1087897600, 0, -2147483648, 0, 0, 33554432]>
    memref.global "private" constant @blockwrite_data_80 : memref<8xi32> = dense<[2, 1316, 1087897600, 0, -2147483648, 0, 0, 33554432]>
    memref.global "private" constant @blockwrite_data_81 : memref<8xi32> = dense<[2, 1324, 1087897600, 0, -2147483648, 0, 0, 33554432]>
    memref.global "private" constant @blockwrite_data_82 : memref<8xi32> = dense<[2, 1332, 1087897600, 0, -2147483648, 0, 0, 33554432]>
    memref.global "private" constant @blockwrite_data_83 : memref<8xi32> = dense<[2, 1340, 1087897600, 0, -2147483648, 0, 0, 33554432]>
    memref.global "private" constant @blockwrite_data_84 : memref<8xi32> = dense<[2, 1348, 1087897600, 0, -2147483648, 0, 0, 33554432]>
    memref.global "private" constant @blockwrite_data_85 : memref<8xi32> = dense<[2, 1356, 1087897600, 0, -2147483648, 0, 0, 33554432]>
    memref.global "private" constant @blockwrite_data_86 : memref<8xi32> = dense<[2, 1364, 1087897600, 0, -2147483648, 0, 0, 33554432]>
    memref.global "private" constant @blockwrite_data_87 : memref<8xi32> = dense<[2, 1372, 1087897600, 0, -2147483648, 0, 0, 33554432]>
    memref.global "private" constant @blockwrite_data_88 : memref<8xi32> = dense<[2, 1380, 1087897600, 0, -2147483648, 0, 0, 33554432]>
    memref.global "private" constant @blockwrite_data_89 : memref<8xi32> = dense<[2, 1388, 1087897600, 0, -2147483648, 0, 0, 33554432]>
    memref.global "private" constant @blockwrite_data_90 : memref<8xi32> = dense<[2, 1396, 1087897600, 0, -2147483648, 0, 0, 33554432]>
    memref.global "private" constant @blockwrite_data_91 : memref<8xi32> = dense<[2, 1404, 1087897600, 0, -2147483648, 0, 0, 33554432]>
    memref.global "private" constant @blockwrite_data_92 : memref<8xi32> = dense<[2, 1412, 1087897600, 0, -2147483648, 0, 0, 33554432]>
    memref.global "private" constant @blockwrite_data_93 : memref<8xi32> = dense<[2, 1420, 1087897600, 0, -2147483648, 0, 0, 33554432]>
    memref.global "private" constant @blockwrite_data_94 : memref<8xi32> = dense<[2, 1428, 1087897600, 0, -2147483648, 0, 0, 33554432]>
    memref.global "private" constant @blockwrite_data_95 : memref<8xi32> = dense<[2, 1436, 1087897600, 0, -2147483648, 0, 0, 33554432]>
    memref.global "private" constant @blockwrite_data_96 : memref<8xi32> = dense<[2, 1444, 1087897600, 0, -2147483648, 0, 0, 33554432]>
    memref.global "private" constant @blockwrite_data_97 : memref<8xi32> = dense<[2, 1452, 1087897600, 0, -2147483648, 0, 0, 33554432]>
    memref.global "private" constant @blockwrite_data_98 : memref<8xi32> = dense<[2, 1460, 1087897600, 0, -2147483648, 0, 0, 33554432]>
    memref.global "private" constant @blockwrite_data_99 : memref<8xi32> = dense<[2, 1468, 1087897600, 0, -2147483648, 0, 0, 33554432]>
    memref.global "private" constant @blockwrite_data_100 : memref<8xi32> = dense<[2, 1476, 1087373312, 0, -2147483648, 0, 0, 33554432]>
    memref.global "private" constant @blockwrite_data_101 : memref<8xi32> = dense<[2, 1484, 1087373312, 0, -2147483648, 0, 0, 33554432]>
    memref.global "private" constant @blockwrite_data_102 : memref<8xi32> = dense<[2, 1492, 1087373312, 0, -2147483648, 0, 0, 33554432]>
    memref.global "private" constant @blockwrite_data_103 : memref<8xi32> = dense<[2, 1500, 1087373312, 0, -2147483648, 0, 0, 33554432]>
    memref.global "private" constant @blockwrite_data_104 : memref<8xi32> = dense<[5, 1508, 1087897600, 0, -2147483648, 0, 0, 33554432]>
    memref.global "private" constant @blockwrite_data_105 : memref<8xi32> = dense<[3, 1528, 1087897600, 0, -2147483648, 0, 0, 33554432]>
    memref.global "private" constant @blockwrite_data_106 : memref<8xi32> = dense<[5, 1540, 1087897600, 0, -2147483648, 0, 0, 33554432]>
    memref.global "private" constant @blockwrite_data_107 : memref<8xi32> = dense<[3, 1560, 1087897600, 0, -2147483648, 0, 0, 33554432]>
    memref.global "private" constant @blockwrite_data_108 : memref<8xi32> = dense<[2, 1572, 1087897600, 0, -2147483648, 0, 0, 33554432]>
    memref.global "private" constant @blockwrite_data_109 : memref<8xi32> = dense<[2, 1580, 1087897600, 0, -2147483648, 0, 0, 33554432]>
    memref.global "private" constant @blockwrite_data_110 : memref<8xi32> = dense<[2, 1588, 1087897600, 0, -2147483648, 0, 0, 33554432]>
    memref.global "private" constant @blockwrite_data_111 : memref<8xi32> = dense<[2, 1596, 1087897600, 0, -2147483648, 0, 0, 33554432]>
    memref.global "private" constant @blockwrite_data_112 : memref<8xi32> = dense<[5, 1604, 1087373312, 0, -2147483648, 0, 0, 33554432]>
    memref.global "private" constant @blockwrite_data_113 : memref<8xi32> = dense<[5, 1624, 1087373312, 0, -2147483648, 0, 0, 33554432]>
    memref.global "private" constant @blockwrite_data_114 : memref<8xi32> = dense<[5, 1644, 1087373312, 0, -2147483648, 0, 0, 33554432]>
    memref.global "private" constant @blockwrite_data_115 : memref<8xi32> = dense<[5, 1664, 1087373312, 0, -2147483648, 0, 0, 33554432]>
    memref.global "private" constant @blockwrite_data_116 : memref<8xi32> = dense<[5, 1684, 1087373312, 0, -2147483648, 0, 0, 33554432]>
    memref.global "private" constant @blockwrite_data_117 : memref<8xi32> = dense<[5, 1704, 1087373312, 0, -2147483648, 0, 0, 33554432]>
    memref.global "private" constant @blockwrite_data_118 : memref<8xi32> = dense<[5, 1724, 1087373312, 0, -2147483648, 0, 0, 33554432]>
    memref.global "private" constant @blockwrite_data_119 : memref<8xi32> = dense<[5, 1744, 1087373312, 0, -2147483648, 0, 0, 33554432]>
    memref.global "private" constant @blockwrite_data_120 : memref<8xi32> = dense<[2, 1764, 1087373312, 0, -2147483648, 0, 0, 33554432]>
    memref.global "private" constant @blockwrite_data_121 : memref<8xi32> = dense<[2, 1772, 1087373312, 0, -2147483648, 0, 0, 33554432]>
    memref.global "private" constant @blockwrite_data_122 : memref<8xi32> = dense<[2, 1780, 1087373312, 0, -2147483648, 0, 0, 33554432]>
    memref.global "private" constant @blockwrite_data_123 : memref<8xi32> = dense<[2, 1788, 1087373312, 0, -2147483648, 0, 0, 33554432]>
    memref.global "private" constant @blockwrite_data_124 : memref<8xi32> = dense<[2, 1796, 1087373312, 0, -2147483648, 0, 0, 33554432]>
    memref.global "private" constant @blockwrite_data_125 : memref<8xi32> = dense<[2, 1804, 1087373312, 0, -2147483648, 0, 0, 33554432]>
    memref.global "private" constant @blockwrite_data_126 : memref<8xi32> = dense<[2, 1812, 1087373312, 0, -2147483648, 0, 0, 33554432]>
    memref.global "private" constant @blockwrite_data_127 : memref<8xi32> = dense<[2, 1820, 1087373312, 0, -2147483648, 0, 0, 33554432]>
    memref.global "private" constant @blockwrite_data_128 : memref<8xi32> = dense<[2, 1828, 1081606144, 0, -2147483648, 0, 0, 33554432]>
    memref.global "private" constant @blockwrite_data_129 : memref<8xi32> = dense<[2, 1836, 1081606144, 0, -2147483648, 0, 0, 33554432]>
    memref.global "private" constant @blockwrite_data_130 : memref<8xi32> = dense<[2, 1844, 1081606144, 0, -2147483648, 0, 0, 33554432]>
    memref.global "private" constant @blockwrite_data_131 : memref<8xi32> = dense<[2, 1852, 1081606144, 0, -2147483648, 0, 0, 33554432]>
    memref.global "private" constant @blockwrite_data_132 : memref<8xi32> = dense<[2, 1860, 1081606144, 0, -2147483648, 0, 0, 33554432]>
    memref.global "private" constant @blockwrite_data_133 : memref<8xi32> = dense<[2, 1868, 1081606144, 0, -2147483648, 0, 0, 33554432]>
    memref.global "private" constant @blockwrite_data_134 : memref<8xi32> = dense<[2, 1876, 1081606144, 0, -2147483648, 0, 0, 33554432]>
    memref.global "private" constant @blockwrite_data_135 : memref<8xi32> = dense<[2, 1884, 1081606144, 0, -2147483648, 0, 0, 33554432]>
    memref.global "private" constant @blockwrite_data_136 : memref<8xi32> = dense<[2, 1892, 1081606144, 0, -2147483648, 0, 0, 33554432]>
    memref.global "private" constant @blockwrite_data_137 : memref<8xi32> = dense<[2, 1900, 1081606144, 0, -2147483648, 0, 0, 33554432]>
    memref.global "private" constant @blockwrite_data_138 : memref<8xi32> = dense<[2, 1908, 1081606144, 0, -2147483648, 0, 0, 33554432]>
    memref.global "private" constant @blockwrite_data_139 : memref<8xi32> = dense<[2, 1916, 1081606144, 0, -2147483648, 0, 0, 33554432]>
    memref.global "private" constant @blockwrite_data_140 : memref<8xi32> = dense<[2, 1924, 1081606144, 0, -2147483648, 0, 0, 33554432]>
    memref.global "private" constant @blockwrite_data_141 : memref<8xi32> = dense<[2, 1932, 1081606144, 0, -2147483648, 0, 0, 33554432]>
    memref.global "private" constant @blockwrite_data_142 : memref<8xi32> = dense<[2, 1940, 1081606144, 0, -2147483648, 0, 0, 33554432]>
    memref.global "private" constant @blockwrite_data_143 : memref<8xi32> = dense<[2, 1948, 1087373312, 0, -2147483648, 0, 0, 33554432]>
    memref.global "private" constant @blockwrite_data_144 : memref<8xi32> = dense<[2, 1956, 1087373312, 0, -2147483648, 0, 0, 33554432]>
    memref.global "private" constant @blockwrite_data_145 : memref<8xi32> = dense<[2, 1964, 1087373312, 0, -2147483648, 0, 0, 33554432]>
    memref.global "private" constant @blockwrite_data_146 : memref<8xi32> = dense<[2, 1972, 1087373312, 0, -2147483648, 0, 0, 33554432]>
    memref.global "private" constant @blockwrite_data_147 : memref<8xi32> = dense<[2, 1980, 1087373312, 0, -2147483648, 0, 0, 33554432]>
    memref.global "private" constant @blockwrite_data_148 : memref<8xi32> = dense<[2, 1988, 1087373312, 0, -2147483648, 0, 0, 33554432]>
    memref.global "private" constant @blockwrite_data_149 : memref<8xi32> = dense<[2, 1996, 1087373312, 0, -2147483648, 0, 0, 33554432]>
    memref.global "private" constant @blockwrite_data_150 : memref<8xi32> = dense<[2, 2004, 1087373312, 0, -2147483648, 0, 0, 33554432]>
    memref.global "private" constant @blockwrite_data_151 : memref<8xi32> = dense<[2, 2012, 1087373312, 0, -2147483648, 0, 0, 33554432]>
    memref.global "private" constant @blockwrite_data_152 : memref<8xi32> = dense<[2, 2020, 1087373312, 0, -2147483648, 0, 0, 33554432]>
    memref.global "private" constant @blockwrite_data_153 : memref<8xi32> = dense<[2, 2028, 1087373312, 0, -2147483648, 0, 0, 33554432]>
    memref.global "private" constant @blockwrite_data_154 : memref<8xi32> = dense<[2, 2036, 1087373312, 0, -2147483648, 0, 0, 33554432]>
    memref.global "private" constant @blockwrite_data_155 : memref<8xi32> = dense<[2, 2044, 1087373312, 0, -2147483648, 0, 0, 33554432]>
    memref.global "private" constant @blockwrite_data_156 : memref<8xi32> = dense<[2, 2052, 1087373312, 0, -2147483648, 0, 0, 33554432]>
    memref.global "private" constant @blockwrite_data_157 : memref<8xi32> = dense<[2, 2060, 1087373312, 0, -2147483648, 0, 0, 33554432]>
    memref.global "private" constant @blockwrite_data_158 : memref<8xi32> = dense<[2, 2068, 1087373312, 0, -2147483648, 0, 0, 33554432]>
    memref.global "private" constant @blockwrite_data_159 : memref<8xi32> = dense<[2, 2076, 1087373312, 0, -2147483648, 0, 0, 33554432]>
    memref.global "private" constant @blockwrite_data_160 : memref<8xi32> = dense<[2, 2084, 1087373312, 0, -2147483648, 0, 0, 33554432]>
    memref.global "private" constant @blockwrite_data_161 : memref<8xi32> = dense<[2, 2092, 1087897600, 0, -2147483648, 0, 0, 33554432]>
    memref.global "private" constant @blockwrite_data_162 : memref<8xi32> = dense<[2, 2100, 1087897600, 0, -2147483648, 0, 0, 33554432]>
    memref.global "private" constant @blockwrite_data_163 : memref<8xi32> = dense<[2, 2108, 1087897600, 0, -2147483648, 0, 0, 33554432]>
    memref.global "private" constant @blockwrite_data_164 : memref<8xi32> = dense<[2, 2116, 1087897600, 0, -2147483648, 0, 0, 33554432]>
    memref.global "private" constant @blockwrite_data_165 : memref<8xi32> = dense<[2, 2124, 1087897600, 0, -2147483648, 0, 0, 33554432]>
    memref.global "private" constant @blockwrite_data_166 : memref<8xi32> = dense<[2, 2132, 1087897600, 0, -2147483648, 0, 0, 33554432]>
    memref.global "private" constant @blockwrite_data_167 : memref<8xi32> = dense<[2, 2140, 1087897600, 0, -2147483648, 0, 0, 33554432]>
    memref.global "private" constant @blockwrite_data_168 : memref<8xi32> = dense<[2, 2148, 1087897600, 0, -2147483648, 0, 0, 33554432]>
    memref.global "private" constant @blockwrite_data_169 : memref<8xi32> = dense<[2, 2156, 1087897600, 0, -2147483648, 0, 0, 33554432]>
    memref.global "private" constant @blockwrite_data_170 : memref<8xi32> = dense<[2, 2164, 1081606144, 0, -2147483648, 0, 0, 33554432]>
    memref.global "private" constant @blockwrite_data_171 : memref<8xi32> = dense<[2, 2172, 1081606144, 0, -2147483648, 0, 0, 33554432]>
    memref.global "private" constant @blockwrite_data_172 : memref<8xi32> = dense<[2, 2180, 1087897600, 0, -2147483648, 0, 0, 33554432]>
    aiex.runtime_sequence(%arg0: memref<1024xi32>) {
      %0 = memref.get_global @blockwrite_data_7 : memref<8xi32>
      aiex.npu.blockwrite(%0) {address = 118784 : ui32} : memref<8xi32>
      aiex.npu.address_patch {addr = 118788 : ui32, arg_idx = 0 : i32, arg_plus = 0 : i32}
      aiex.npu.maskwrite32 {address = 119312 : ui32, column = 0 : i32, mask = 3840 : ui32, row = 0 : i32, value = 3840 : ui32}
      aiex.npu.write32 {address = 119316 : ui32, column = 0 : i32, row = 0 : i32, value = 2147483648 : ui32}
      aiex.npu.sync {channel = 0 : i32, column = 0 : i32, column_num = 1 : i32, direction = 1 : i32, row = 0 : i32, row_num = 1 : i32}
      %1 = memref.get_global @blockwrite_data_8 : memref<8xi32>
      aiex.npu.blockwrite(%1) {address = 118784 : ui32} : memref<8xi32>
      aiex.npu.address_patch {addr = 118788 : ui32, arg_idx = 0 : i32, arg_plus = 8 : i32}
      aiex.npu.maskwrite32 {address = 119312 : ui32, column = 0 : i32, mask = 3840 : ui32, row = 0 : i32, value = 3840 : ui32}
      aiex.npu.write32 {address = 119316 : ui32, column = 0 : i32, row = 0 : i32, value = 2147483648 : ui32}
      aiex.npu.sync {channel = 0 : i32, column = 0 : i32, column_num = 1 : i32, direction = 1 : i32, row = 0 : i32, row_num = 1 : i32}
      %2 = memref.get_global @blockwrite_data_9 : memref<8xi32>
      aiex.npu.blockwrite(%2) {address = 118784 : ui32} : memref<8xi32>
      aiex.npu.address_patch {addr = 118788 : ui32, arg_idx = 0 : i32, arg_plus = 16 : i32}
      aiex.npu.maskwrite32 {address = 119312 : ui32, column = 0 : i32, mask = 3840 : ui32, row = 0 : i32, value = 3840 : ui32}
      aiex.npu.write32 {address = 119316 : ui32, column = 0 : i32, row = 0 : i32, value = 2147483648 : ui32}
      aiex.npu.sync {channel = 0 : i32, column = 0 : i32, column_num = 1 : i32, direction = 1 : i32, row = 0 : i32, row_num = 1 : i32}
      %3 = memref.get_global @blockwrite_data_10 : memref<8xi32>
      aiex.npu.blockwrite(%3) {address = 118784 : ui32} : memref<8xi32>
      aiex.npu.address_patch {addr = 118788 : ui32, arg_idx = 0 : i32, arg_plus = 24 : i32}
      aiex.npu.maskwrite32 {address = 119312 : ui32, column = 0 : i32, mask = 3840 : ui32, row = 0 : i32, value = 3840 : ui32}
      aiex.npu.write32 {address = 119316 : ui32, column = 0 : i32, row = 0 : i32, value = 2147483648 : ui32}
      aiex.npu.sync {channel = 0 : i32, column = 0 : i32, column_num = 1 : i32, direction = 1 : i32, row = 0 : i32, row_num = 1 : i32}
      %4 = memref.get_global @blockwrite_data_11 : memref<8xi32>
      aiex.npu.blockwrite(%4) {address = 118784 : ui32} : memref<8xi32>
      aiex.npu.address_patch {addr = 118788 : ui32, arg_idx = 0 : i32, arg_plus = 32 : i32}
      aiex.npu.maskwrite32 {address = 119312 : ui32, column = 0 : i32, mask = 3840 : ui32, row = 0 : i32, value = 3840 : ui32}
      aiex.npu.write32 {address = 119316 : ui32, column = 0 : i32, row = 0 : i32, value = 2147483648 : ui32}
      aiex.npu.sync {channel = 0 : i32, column = 0 : i32, column_num = 1 : i32, direction = 1 : i32, row = 0 : i32, row_num = 1 : i32}
      %5 = memref.get_global @blockwrite_data_12 : memref<8xi32>
      aiex.npu.blockwrite(%5) {address = 118784 : ui32} : memref<8xi32>
      aiex.npu.address_patch {addr = 118788 : ui32, arg_idx = 0 : i32, arg_plus = 40 : i32}
      aiex.npu.maskwrite32 {address = 119312 : ui32, column = 0 : i32, mask = 3840 : ui32, row = 0 : i32, value = 3840 : ui32}
      aiex.npu.write32 {address = 119316 : ui32, column = 0 : i32, row = 0 : i32, value = 2147483648 : ui32}
      aiex.npu.sync {channel = 0 : i32, column = 0 : i32, column_num = 1 : i32, direction = 1 : i32, row = 0 : i32, row_num = 1 : i32}
      %6 = memref.get_global @blockwrite_data_13 : memref<8xi32>
      aiex.npu.blockwrite(%6) {address = 118784 : ui32} : memref<8xi32>
      aiex.npu.address_patch {addr = 118788 : ui32, arg_idx = 0 : i32, arg_plus = 60 : i32}
      aiex.npu.maskwrite32 {address = 119312 : ui32, column = 0 : i32, mask = 3840 : ui32, row = 0 : i32, value = 3840 : ui32}
      aiex.npu.write32 {address = 119316 : ui32, column = 0 : i32, row = 0 : i32, value = 2147483648 : ui32}
      aiex.npu.sync {channel = 0 : i32, column = 0 : i32, column_num = 1 : i32, direction = 1 : i32, row = 0 : i32, row_num = 1 : i32}
      %7 = memref.get_global @blockwrite_data_14 : memref<8xi32>
      aiex.npu.blockwrite(%7) {address = 118784 : ui32} : memref<8xi32>
      aiex.npu.address_patch {addr = 118788 : ui32, arg_idx = 0 : i32, arg_plus = 80 : i32}
      aiex.npu.maskwrite32 {address = 119312 : ui32, column = 0 : i32, mask = 3840 : ui32, row = 0 : i32, value = 3840 : ui32}
      aiex.npu.write32 {address = 119316 : ui32, column = 0 : i32, row = 0 : i32, value = 2147483648 : ui32}
      aiex.npu.sync {channel = 0 : i32, column = 0 : i32, column_num = 1 : i32, direction = 1 : i32, row = 0 : i32, row_num = 1 : i32}
      %8 = memref.get_global @blockwrite_data_15 : memref<8xi32>
      aiex.npu.blockwrite(%8) {address = 118784 : ui32} : memref<8xi32>
      aiex.npu.address_patch {addr = 118788 : ui32, arg_idx = 0 : i32, arg_plus = 88 : i32}
      aiex.npu.maskwrite32 {address = 119312 : ui32, column = 0 : i32, mask = 3840 : ui32, row = 0 : i32, value = 3840 : ui32}
      aiex.npu.write32 {address = 119316 : ui32, column = 0 : i32, row = 0 : i32, value = 2147483648 : ui32}
      aiex.npu.sync {channel = 0 : i32, column = 0 : i32, column_num = 1 : i32, direction = 1 : i32, row = 0 : i32, row_num = 1 : i32}
      %9 = memref.get_global @blockwrite_data_16 : memref<8xi32>
      aiex.npu.blockwrite(%9) {address = 118784 : ui32} : memref<8xi32>
      aiex.npu.address_patch {addr = 118788 : ui32, arg_idx = 0 : i32, arg_plus = 108 : i32}
      aiex.npu.maskwrite32 {address = 119312 : ui32, column = 0 : i32, mask = 3840 : ui32, row = 0 : i32, value = 3840 : ui32}
      aiex.npu.write32 {address = 119316 : ui32, column = 0 : i32, row = 0 : i32, value = 2147483648 : ui32}
      aiex.npu.sync {channel = 0 : i32, column = 0 : i32, column_num = 1 : i32, direction = 1 : i32, row = 0 : i32, row_num = 1 : i32}
      %10 = memref.get_global @blockwrite_data_17 : memref<8xi32>
      aiex.npu.blockwrite(%10) {address = 118784 : ui32} : memref<8xi32>
      aiex.npu.address_patch {addr = 118788 : ui32, arg_idx = 0 : i32, arg_plus = 128 : i32}
      aiex.npu.maskwrite32 {address = 119312 : ui32, column = 0 : i32, mask = 3840 : ui32, row = 0 : i32, value = 3840 : ui32}
      aiex.npu.write32 {address = 119316 : ui32, column = 0 : i32, row = 0 : i32, value = 2147483648 : ui32}
      aiex.npu.sync {channel = 0 : i32, column = 0 : i32, column_num = 1 : i32, direction = 1 : i32, row = 0 : i32, row_num = 1 : i32}
      %11 = memref.get_global @blockwrite_data_18 : memref<8xi32>
      aiex.npu.blockwrite(%11) {address = 118784 : ui32} : memref<8xi32>
      aiex.npu.address_patch {addr = 118788 : ui32, arg_idx = 0 : i32, arg_plus = 148 : i32}
      aiex.npu.maskwrite32 {address = 119312 : ui32, column = 0 : i32, mask = 3840 : ui32, row = 0 : i32, value = 3840 : ui32}
      aiex.npu.write32 {address = 119316 : ui32, column = 0 : i32, row = 0 : i32, value = 2147483648 : ui32}
      aiex.npu.sync {channel = 0 : i32, column = 0 : i32, column_num = 1 : i32, direction = 1 : i32, row = 0 : i32, row_num = 1 : i32}
      %12 = memref.get_global @blockwrite_data_19 : memref<8xi32>
      aiex.npu.blockwrite(%12) {address = 118784 : ui32} : memref<8xi32>
      aiex.npu.address_patch {addr = 118788 : ui32, arg_idx = 0 : i32, arg_plus = 168 : i32}
      aiex.npu.maskwrite32 {address = 119312 : ui32, column = 0 : i32, mask = 3840 : ui32, row = 0 : i32, value = 3840 : ui32}
      aiex.npu.write32 {address = 119316 : ui32, column = 0 : i32, row = 0 : i32, value = 2147483648 : ui32}
      aiex.npu.sync {channel = 0 : i32, column = 0 : i32, column_num = 1 : i32, direction = 1 : i32, row = 0 : i32, row_num = 1 : i32}
      %13 = memref.get_global @blockwrite_data_20 : memref<8xi32>
      aiex.npu.blockwrite(%13) {address = 118784 : ui32} : memref<8xi32>
      aiex.npu.address_patch {addr = 118788 : ui32, arg_idx = 0 : i32, arg_plus = 188 : i32}
      aiex.npu.maskwrite32 {address = 119312 : ui32, column = 0 : i32, mask = 3840 : ui32, row = 0 : i32, value = 3840 : ui32}
      aiex.npu.write32 {address = 119316 : ui32, column = 0 : i32, row = 0 : i32, value = 2147483648 : ui32}
      aiex.npu.sync {channel = 0 : i32, column = 0 : i32, column_num = 1 : i32, direction = 1 : i32, row = 0 : i32, row_num = 1 : i32}
      %14 = memref.get_global @blockwrite_data_21 : memref<8xi32>
      aiex.npu.blockwrite(%14) {address = 118784 : ui32} : memref<8xi32>
      aiex.npu.address_patch {addr = 118788 : ui32, arg_idx = 0 : i32, arg_plus = 208 : i32}
      aiex.npu.maskwrite32 {address = 119312 : ui32, column = 0 : i32, mask = 3840 : ui32, row = 0 : i32, value = 3840 : ui32}
      aiex.npu.write32 {address = 119316 : ui32, column = 0 : i32, row = 0 : i32, value = 2147483648 : ui32}
      aiex.npu.sync {channel = 0 : i32, column = 0 : i32, column_num = 1 : i32, direction = 1 : i32, row = 0 : i32, row_num = 1 : i32}
      %15 = memref.get_global @blockwrite_data_22 : memref<8xi32>
      aiex.npu.blockwrite(%15) {address = 118784 : ui32} : memref<8xi32>
      aiex.npu.address_patch {addr = 118788 : ui32, arg_idx = 0 : i32, arg_plus = 228 : i32}
      aiex.npu.maskwrite32 {address = 119312 : ui32, column = 0 : i32, mask = 3840 : ui32, row = 0 : i32, value = 3840 : ui32}
      aiex.npu.write32 {address = 119316 : ui32, column = 0 : i32, row = 0 : i32, value = 2147483648 : ui32}
      aiex.npu.sync {channel = 0 : i32, column = 0 : i32, column_num = 1 : i32, direction = 1 : i32, row = 0 : i32, row_num = 1 : i32}
      %16 = memref.get_global @blockwrite_data_23 : memref<8xi32>
      aiex.npu.blockwrite(%16) {address = 118784 : ui32} : memref<8xi32>
      aiex.npu.address_patch {addr = 118788 : ui32, arg_idx = 0 : i32, arg_plus = 248 : i32}
      aiex.npu.maskwrite32 {address = 119312 : ui32, column = 0 : i32, mask = 3840 : ui32, row = 0 : i32, value = 3840 : ui32}
      aiex.npu.write32 {address = 119316 : ui32, column = 0 : i32, row = 0 : i32, value = 2147483648 : ui32}
      aiex.npu.sync {channel = 0 : i32, column = 0 : i32, column_num = 1 : i32, direction = 1 : i32, row = 0 : i32, row_num = 1 : i32}
      %17 = memref.get_global @blockwrite_data_24 : memref<8xi32>
      aiex.npu.blockwrite(%17) {address = 118784 : ui32} : memref<8xi32>
      aiex.npu.address_patch {addr = 118788 : ui32, arg_idx = 0 : i32, arg_plus = 268 : i32}
      aiex.npu.maskwrite32 {address = 119312 : ui32, column = 0 : i32, mask = 3840 : ui32, row = 0 : i32, value = 3840 : ui32}
      aiex.npu.write32 {address = 119316 : ui32, column = 0 : i32, row = 0 : i32, value = 2147483648 : ui32}
      aiex.npu.sync {channel = 0 : i32, column = 0 : i32, column_num = 1 : i32, direction = 1 : i32, row = 0 : i32, row_num = 1 : i32}
      %18 = memref.get_global @blockwrite_data_25 : memref<8xi32>
      aiex.npu.blockwrite(%18) {address = 118784 : ui32} : memref<8xi32>
      aiex.npu.address_patch {addr = 118788 : ui32, arg_idx = 0 : i32, arg_plus = 288 : i32}
      aiex.npu.maskwrite32 {address = 119312 : ui32, column = 0 : i32, mask = 3840 : ui32, row = 0 : i32, value = 3840 : ui32}
      aiex.npu.write32 {address = 119316 : ui32, column = 0 : i32, row = 0 : i32, value = 2147483648 : ui32}
      aiex.npu.sync {channel = 0 : i32, column = 0 : i32, column_num = 1 : i32, direction = 1 : i32, row = 0 : i32, row_num = 1 : i32}
      %19 = memref.get_global @blockwrite_data_26 : memref<8xi32>
      aiex.npu.blockwrite(%19) {address = 118784 : ui32} : memref<8xi32>
      aiex.npu.address_patch {addr = 118788 : ui32, arg_idx = 0 : i32, arg_plus = 308 : i32}
      aiex.npu.maskwrite32 {address = 119312 : ui32, column = 0 : i32, mask = 3840 : ui32, row = 0 : i32, value = 3840 : ui32}
      aiex.npu.write32 {address = 119316 : ui32, column = 0 : i32, row = 0 : i32, value = 2147483648 : ui32}
      aiex.npu.sync {channel = 0 : i32, column = 0 : i32, column_num = 1 : i32, direction = 1 : i32, row = 0 : i32, row_num = 1 : i32}
      %20 = memref.get_global @blockwrite_data_27 : memref<8xi32>
      aiex.npu.blockwrite(%20) {address = 118784 : ui32} : memref<8xi32>
      aiex.npu.address_patch {addr = 118788 : ui32, arg_idx = 0 : i32, arg_plus = 328 : i32}
      aiex.npu.maskwrite32 {address = 119312 : ui32, column = 0 : i32, mask = 3840 : ui32, row = 0 : i32, value = 3840 : ui32}
      aiex.npu.write32 {address = 119316 : ui32, column = 0 : i32, row = 0 : i32, value = 2147483648 : ui32}
      aiex.npu.sync {channel = 0 : i32, column = 0 : i32, column_num = 1 : i32, direction = 1 : i32, row = 0 : i32, row_num = 1 : i32}
      %21 = memref.get_global @blockwrite_data_28 : memref<8xi32>
      aiex.npu.blockwrite(%21) {address = 118784 : ui32} : memref<8xi32>
      aiex.npu.address_patch {addr = 118788 : ui32, arg_idx = 0 : i32, arg_plus = 348 : i32}
      aiex.npu.maskwrite32 {address = 119312 : ui32, column = 0 : i32, mask = 3840 : ui32, row = 0 : i32, value = 3840 : ui32}
      aiex.npu.write32 {address = 119316 : ui32, column = 0 : i32, row = 0 : i32, value = 2147483648 : ui32}
      aiex.npu.sync {channel = 0 : i32, column = 0 : i32, column_num = 1 : i32, direction = 1 : i32, row = 0 : i32, row_num = 1 : i32}
      %22 = memref.get_global @blockwrite_data_29 : memref<8xi32>
      aiex.npu.blockwrite(%22) {address = 118784 : ui32} : memref<8xi32>
      aiex.npu.address_patch {addr = 118788 : ui32, arg_idx = 0 : i32, arg_plus = 368 : i32}
      aiex.npu.maskwrite32 {address = 119312 : ui32, column = 0 : i32, mask = 3840 : ui32, row = 0 : i32, value = 3840 : ui32}
      aiex.npu.write32 {address = 119316 : ui32, column = 0 : i32, row = 0 : i32, value = 2147483648 : ui32}
      aiex.npu.sync {channel = 0 : i32, column = 0 : i32, column_num = 1 : i32, direction = 1 : i32, row = 0 : i32, row_num = 1 : i32}
      %23 = memref.get_global @blockwrite_data_30 : memref<8xi32>
      aiex.npu.blockwrite(%23) {address = 118784 : ui32} : memref<8xi32>
      aiex.npu.address_patch {addr = 118788 : ui32, arg_idx = 0 : i32, arg_plus = 388 : i32}
      aiex.npu.maskwrite32 {address = 119312 : ui32, column = 0 : i32, mask = 3840 : ui32, row = 0 : i32, value = 3840 : ui32}
      aiex.npu.write32 {address = 119316 : ui32, column = 0 : i32, row = 0 : i32, value = 2147483648 : ui32}
      aiex.npu.sync {channel = 0 : i32, column = 0 : i32, column_num = 1 : i32, direction = 1 : i32, row = 0 : i32, row_num = 1 : i32}
      %24 = memref.get_global @blockwrite_data_31 : memref<8xi32>
      aiex.npu.blockwrite(%24) {address = 118784 : ui32} : memref<8xi32>
      aiex.npu.address_patch {addr = 118788 : ui32, arg_idx = 0 : i32, arg_plus = 408 : i32}
      aiex.npu.maskwrite32 {address = 119312 : ui32, column = 0 : i32, mask = 3840 : ui32, row = 0 : i32, value = 3840 : ui32}
      aiex.npu.write32 {address = 119316 : ui32, column = 0 : i32, row = 0 : i32, value = 2147483648 : ui32}
      aiex.npu.sync {channel = 0 : i32, column = 0 : i32, column_num = 1 : i32, direction = 1 : i32, row = 0 : i32, row_num = 1 : i32}
      %25 = memref.get_global @blockwrite_data_32 : memref<8xi32>
      aiex.npu.blockwrite(%25) {address = 118784 : ui32} : memref<8xi32>
      aiex.npu.address_patch {addr = 118788 : ui32, arg_idx = 0 : i32, arg_plus = 428 : i32}
      aiex.npu.maskwrite32 {address = 119312 : ui32, column = 0 : i32, mask = 3840 : ui32, row = 0 : i32, value = 3840 : ui32}
      aiex.npu.write32 {address = 119316 : ui32, column = 0 : i32, row = 0 : i32, value = 2147483648 : ui32}
      aiex.npu.sync {channel = 0 : i32, column = 0 : i32, column_num = 1 : i32, direction = 1 : i32, row = 0 : i32, row_num = 1 : i32}
      %26 = memref.get_global @blockwrite_data_33 : memref<8xi32>
      aiex.npu.blockwrite(%26) {address = 118784 : ui32} : memref<8xi32>
      aiex.npu.address_patch {addr = 118788 : ui32, arg_idx = 0 : i32, arg_plus = 448 : i32}
      aiex.npu.maskwrite32 {address = 119312 : ui32, column = 0 : i32, mask = 3840 : ui32, row = 0 : i32, value = 3840 : ui32}
      aiex.npu.write32 {address = 119316 : ui32, column = 0 : i32, row = 0 : i32, value = 2147483648 : ui32}
      aiex.npu.sync {channel = 0 : i32, column = 0 : i32, column_num = 1 : i32, direction = 1 : i32, row = 0 : i32, row_num = 1 : i32}
      %27 = memref.get_global @blockwrite_data_34 : memref<8xi32>
      aiex.npu.blockwrite(%27) {address = 118784 : ui32} : memref<8xi32>
      aiex.npu.address_patch {addr = 118788 : ui32, arg_idx = 0 : i32, arg_plus = 468 : i32}
      aiex.npu.maskwrite32 {address = 119312 : ui32, column = 0 : i32, mask = 3840 : ui32, row = 0 : i32, value = 3840 : ui32}
      aiex.npu.write32 {address = 119316 : ui32, column = 0 : i32, row = 0 : i32, value = 2147483648 : ui32}
      aiex.npu.sync {channel = 0 : i32, column = 0 : i32, column_num = 1 : i32, direction = 1 : i32, row = 0 : i32, row_num = 1 : i32}
      %28 = memref.get_global @blockwrite_data_35 : memref<8xi32>
      aiex.npu.blockwrite(%28) {address = 118784 : ui32} : memref<8xi32>
      aiex.npu.address_patch {addr = 118788 : ui32, arg_idx = 0 : i32, arg_plus = 488 : i32}
      aiex.npu.maskwrite32 {address = 119312 : ui32, column = 0 : i32, mask = 3840 : ui32, row = 0 : i32, value = 3840 : ui32}
      aiex.npu.write32 {address = 119316 : ui32, column = 0 : i32, row = 0 : i32, value = 2147483648 : ui32}
      aiex.npu.sync {channel = 0 : i32, column = 0 : i32, column_num = 1 : i32, direction = 1 : i32, row = 0 : i32, row_num = 1 : i32}
      %29 = memref.get_global @blockwrite_data_36 : memref<8xi32>
      aiex.npu.blockwrite(%29) {address = 118784 : ui32} : memref<8xi32>
      aiex.npu.address_patch {addr = 118788 : ui32, arg_idx = 0 : i32, arg_plus = 508 : i32}
      aiex.npu.maskwrite32 {address = 119312 : ui32, column = 0 : i32, mask = 3840 : ui32, row = 0 : i32, value = 3840 : ui32}
      aiex.npu.write32 {address = 119316 : ui32, column = 0 : i32, row = 0 : i32, value = 2147483648 : ui32}
      aiex.npu.sync {channel = 0 : i32, column = 0 : i32, column_num = 1 : i32, direction = 1 : i32, row = 0 : i32, row_num = 1 : i32}
      %30 = memref.get_global @blockwrite_data_37 : memref<8xi32>
      aiex.npu.blockwrite(%30) {address = 118784 : ui32} : memref<8xi32>
      aiex.npu.address_patch {addr = 118788 : ui32, arg_idx = 0 : i32, arg_plus = 528 : i32}
      aiex.npu.maskwrite32 {address = 119312 : ui32, column = 0 : i32, mask = 3840 : ui32, row = 0 : i32, value = 3840 : ui32}
      aiex.npu.write32 {address = 119316 : ui32, column = 0 : i32, row = 0 : i32, value = 2147483648 : ui32}
      aiex.npu.sync {channel = 0 : i32, column = 0 : i32, column_num = 1 : i32, direction = 1 : i32, row = 0 : i32, row_num = 1 : i32}
      %31 = memref.get_global @blockwrite_data_38 : memref<8xi32>
      aiex.npu.blockwrite(%31) {address = 118784 : ui32} : memref<8xi32>
      aiex.npu.address_patch {addr = 118788 : ui32, arg_idx = 0 : i32, arg_plus = 548 : i32}
      aiex.npu.maskwrite32 {address = 119312 : ui32, column = 0 : i32, mask = 3840 : ui32, row = 0 : i32, value = 3840 : ui32}
      aiex.npu.write32 {address = 119316 : ui32, column = 0 : i32, row = 0 : i32, value = 2147483648 : ui32}
      aiex.npu.sync {channel = 0 : i32, column = 0 : i32, column_num = 1 : i32, direction = 1 : i32, row = 0 : i32, row_num = 1 : i32}
      %32 = memref.get_global @blockwrite_data_39 : memref<8xi32>
      aiex.npu.blockwrite(%32) {address = 118784 : ui32} : memref<8xi32>
      aiex.npu.address_patch {addr = 118788 : ui32, arg_idx = 0 : i32, arg_plus = 568 : i32}
      aiex.npu.maskwrite32 {address = 119312 : ui32, column = 0 : i32, mask = 3840 : ui32, row = 0 : i32, value = 3840 : ui32}
      aiex.npu.write32 {address = 119316 : ui32, column = 0 : i32, row = 0 : i32, value = 2147483648 : ui32}
      aiex.npu.sync {channel = 0 : i32, column = 0 : i32, column_num = 1 : i32, direction = 1 : i32, row = 0 : i32, row_num = 1 : i32}
      %33 = memref.get_global @blockwrite_data_40 : memref<8xi32>
      aiex.npu.blockwrite(%33) {address = 118784 : ui32} : memref<8xi32>
      aiex.npu.address_patch {addr = 118788 : ui32, arg_idx = 0 : i32, arg_plus = 588 : i32}
      aiex.npu.maskwrite32 {address = 119312 : ui32, column = 0 : i32, mask = 3840 : ui32, row = 0 : i32, value = 3840 : ui32}
      aiex.npu.write32 {address = 119316 : ui32, column = 0 : i32, row = 0 : i32, value = 2147483648 : ui32}
      aiex.npu.sync {channel = 0 : i32, column = 0 : i32, column_num = 1 : i32, direction = 1 : i32, row = 0 : i32, row_num = 1 : i32}
      %34 = memref.get_global @blockwrite_data_41 : memref<8xi32>
      aiex.npu.blockwrite(%34) {address = 118784 : ui32} : memref<8xi32>
      aiex.npu.address_patch {addr = 118788 : ui32, arg_idx = 0 : i32, arg_plus = 608 : i32}
      aiex.npu.maskwrite32 {address = 119312 : ui32, column = 0 : i32, mask = 3840 : ui32, row = 0 : i32, value = 3840 : ui32}
      aiex.npu.write32 {address = 119316 : ui32, column = 0 : i32, row = 0 : i32, value = 2147483648 : ui32}
      aiex.npu.sync {channel = 0 : i32, column = 0 : i32, column_num = 1 : i32, direction = 1 : i32, row = 0 : i32, row_num = 1 : i32}
      %35 = memref.get_global @blockwrite_data_42 : memref<8xi32>
      aiex.npu.blockwrite(%35) {address = 118784 : ui32} : memref<8xi32>
      aiex.npu.address_patch {addr = 118788 : ui32, arg_idx = 0 : i32, arg_plus = 628 : i32}
      aiex.npu.maskwrite32 {address = 119312 : ui32, column = 0 : i32, mask = 3840 : ui32, row = 0 : i32, value = 3840 : ui32}
      aiex.npu.write32 {address = 119316 : ui32, column = 0 : i32, row = 0 : i32, value = 2147483648 : ui32}
      aiex.npu.sync {channel = 0 : i32, column = 0 : i32, column_num = 1 : i32, direction = 1 : i32, row = 0 : i32, row_num = 1 : i32}
      %36 = memref.get_global @blockwrite_data_43 : memref<8xi32>
      aiex.npu.blockwrite(%36) {address = 118784 : ui32} : memref<8xi32>
      aiex.npu.address_patch {addr = 118788 : ui32, arg_idx = 0 : i32, arg_plus = 648 : i32}
      aiex.npu.maskwrite32 {address = 119312 : ui32, column = 0 : i32, mask = 3840 : ui32, row = 0 : i32, value = 3840 : ui32}
      aiex.npu.write32 {address = 119316 : ui32, column = 0 : i32, row = 0 : i32, value = 2147483648 : ui32}
      aiex.npu.sync {channel = 0 : i32, column = 0 : i32, column_num = 1 : i32, direction = 1 : i32, row = 0 : i32, row_num = 1 : i32}
      %37 = memref.get_global @blockwrite_data_44 : memref<8xi32>
      aiex.npu.blockwrite(%37) {address = 118784 : ui32} : memref<8xi32>
      aiex.npu.address_patch {addr = 118788 : ui32, arg_idx = 0 : i32, arg_plus = 668 : i32}
      aiex.npu.maskwrite32 {address = 119312 : ui32, column = 0 : i32, mask = 3840 : ui32, row = 0 : i32, value = 3840 : ui32}
      aiex.npu.write32 {address = 119316 : ui32, column = 0 : i32, row = 0 : i32, value = 2147483648 : ui32}
      aiex.npu.sync {channel = 0 : i32, column = 0 : i32, column_num = 1 : i32, direction = 1 : i32, row = 0 : i32, row_num = 1 : i32}
      %38 = memref.get_global @blockwrite_data_45 : memref<8xi32>
      aiex.npu.blockwrite(%38) {address = 118784 : ui32} : memref<8xi32>
      aiex.npu.address_patch {addr = 118788 : ui32, arg_idx = 0 : i32, arg_plus = 688 : i32}
      aiex.npu.maskwrite32 {address = 119312 : ui32, column = 0 : i32, mask = 3840 : ui32, row = 0 : i32, value = 3840 : ui32}
      aiex.npu.write32 {address = 119316 : ui32, column = 0 : i32, row = 0 : i32, value = 2147483648 : ui32}
      aiex.npu.sync {channel = 0 : i32, column = 0 : i32, column_num = 1 : i32, direction = 1 : i32, row = 0 : i32, row_num = 1 : i32}
      %39 = memref.get_global @blockwrite_data_46 : memref<8xi32>
      aiex.npu.blockwrite(%39) {address = 118784 : ui32} : memref<8xi32>
      aiex.npu.address_patch {addr = 118788 : ui32, arg_idx = 0 : i32, arg_plus = 708 : i32}
      aiex.npu.maskwrite32 {address = 119312 : ui32, column = 0 : i32, mask = 3840 : ui32, row = 0 : i32, value = 3840 : ui32}
      aiex.npu.write32 {address = 119316 : ui32, column = 0 : i32, row = 0 : i32, value = 2147483648 : ui32}
      aiex.npu.sync {channel = 0 : i32, column = 0 : i32, column_num = 1 : i32, direction = 1 : i32, row = 0 : i32, row_num = 1 : i32}
      %40 = memref.get_global @blockwrite_data_47 : memref<8xi32>
      aiex.npu.blockwrite(%40) {address = 118784 : ui32} : memref<8xi32>
      aiex.npu.address_patch {addr = 118788 : ui32, arg_idx = 0 : i32, arg_plus = 728 : i32}
      aiex.npu.maskwrite32 {address = 119312 : ui32, column = 0 : i32, mask = 3840 : ui32, row = 0 : i32, value = 3840 : ui32}
      aiex.npu.write32 {address = 119316 : ui32, column = 0 : i32, row = 0 : i32, value = 2147483648 : ui32}
      aiex.npu.sync {channel = 0 : i32, column = 0 : i32, column_num = 1 : i32, direction = 1 : i32, row = 0 : i32, row_num = 1 : i32}
      %41 = memref.get_global @blockwrite_data_48 : memref<8xi32>
      aiex.npu.blockwrite(%41) {address = 118784 : ui32} : memref<8xi32>
      aiex.npu.address_patch {addr = 118788 : ui32, arg_idx = 0 : i32, arg_plus = 748 : i32}
      aiex.npu.maskwrite32 {address = 119312 : ui32, column = 0 : i32, mask = 3840 : ui32, row = 0 : i32, value = 3840 : ui32}
      aiex.npu.write32 {address = 119316 : ui32, column = 0 : i32, row = 0 : i32, value = 2147483648 : ui32}
      aiex.npu.sync {channel = 0 : i32, column = 0 : i32, column_num = 1 : i32, direction = 1 : i32, row = 0 : i32, row_num = 1 : i32}
      %42 = memref.get_global @blockwrite_data_49 : memref<8xi32>
      aiex.npu.blockwrite(%42) {address = 118784 : ui32} : memref<8xi32>
      aiex.npu.address_patch {addr = 118788 : ui32, arg_idx = 0 : i32, arg_plus = 768 : i32}
      aiex.npu.maskwrite32 {address = 119312 : ui32, column = 0 : i32, mask = 3840 : ui32, row = 0 : i32, value = 3840 : ui32}
      aiex.npu.write32 {address = 119316 : ui32, column = 0 : i32, row = 0 : i32, value = 2147483648 : ui32}
      aiex.npu.sync {channel = 0 : i32, column = 0 : i32, column_num = 1 : i32, direction = 1 : i32, row = 0 : i32, row_num = 1 : i32}
      %43 = memref.get_global @blockwrite_data_50 : memref<8xi32>
      aiex.npu.blockwrite(%43) {address = 118784 : ui32} : memref<8xi32>
      aiex.npu.address_patch {addr = 118788 : ui32, arg_idx = 0 : i32, arg_plus = 788 : i32}
      aiex.npu.maskwrite32 {address = 119312 : ui32, column = 0 : i32, mask = 3840 : ui32, row = 0 : i32, value = 3840 : ui32}
      aiex.npu.write32 {address = 119316 : ui32, column = 0 : i32, row = 0 : i32, value = 2147483648 : ui32}
      aiex.npu.sync {channel = 0 : i32, column = 0 : i32, column_num = 1 : i32, direction = 1 : i32, row = 0 : i32, row_num = 1 : i32}
      %44 = memref.get_global @blockwrite_data_51 : memref<8xi32>
      aiex.npu.blockwrite(%44) {address = 118784 : ui32} : memref<8xi32>
      aiex.npu.address_patch {addr = 118788 : ui32, arg_idx = 0 : i32, arg_plus = 808 : i32}
      aiex.npu.maskwrite32 {address = 119312 : ui32, column = 0 : i32, mask = 3840 : ui32, row = 0 : i32, value = 3840 : ui32}
      aiex.npu.write32 {address = 119316 : ui32, column = 0 : i32, row = 0 : i32, value = 2147483648 : ui32}
      aiex.npu.sync {channel = 0 : i32, column = 0 : i32, column_num = 1 : i32, direction = 1 : i32, row = 0 : i32, row_num = 1 : i32}
      %45 = memref.get_global @blockwrite_data_52 : memref<8xi32>
      aiex.npu.blockwrite(%45) {address = 118784 : ui32} : memref<8xi32>
      aiex.npu.address_patch {addr = 118788 : ui32, arg_idx = 0 : i32, arg_plus = 828 : i32}
      aiex.npu.maskwrite32 {address = 119312 : ui32, column = 0 : i32, mask = 3840 : ui32, row = 0 : i32, value = 3840 : ui32}
      aiex.npu.write32 {address = 119316 : ui32, column = 0 : i32, row = 0 : i32, value = 2147483648 : ui32}
      aiex.npu.sync {channel = 0 : i32, column = 0 : i32, column_num = 1 : i32, direction = 1 : i32, row = 0 : i32, row_num = 1 : i32}
      %46 = memref.get_global @blockwrite_data_53 : memref<8xi32>
      aiex.npu.blockwrite(%46) {address = 118784 : ui32} : memref<8xi32>
      aiex.npu.address_patch {addr = 118788 : ui32, arg_idx = 0 : i32, arg_plus = 848 : i32}
      aiex.npu.maskwrite32 {address = 119312 : ui32, column = 0 : i32, mask = 3840 : ui32, row = 0 : i32, value = 3840 : ui32}
      aiex.npu.write32 {address = 119316 : ui32, column = 0 : i32, row = 0 : i32, value = 2147483648 : ui32}
      aiex.npu.sync {channel = 0 : i32, column = 0 : i32, column_num = 1 : i32, direction = 1 : i32, row = 0 : i32, row_num = 1 : i32}
      %47 = memref.get_global @blockwrite_data_54 : memref<8xi32>
      aiex.npu.blockwrite(%47) {address = 118784 : ui32} : memref<8xi32>
      aiex.npu.address_patch {addr = 118788 : ui32, arg_idx = 0 : i32, arg_plus = 868 : i32}
      aiex.npu.maskwrite32 {address = 119312 : ui32, column = 0 : i32, mask = 3840 : ui32, row = 0 : i32, value = 3840 : ui32}
      aiex.npu.write32 {address = 119316 : ui32, column = 0 : i32, row = 0 : i32, value = 2147483648 : ui32}
      aiex.npu.sync {channel = 0 : i32, column = 0 : i32, column_num = 1 : i32, direction = 1 : i32, row = 0 : i32, row_num = 1 : i32}
      %48 = memref.get_global @blockwrite_data_55 : memref<8xi32>
      aiex.npu.blockwrite(%48) {address = 118784 : ui32} : memref<8xi32>
      aiex.npu.address_patch {addr = 118788 : ui32, arg_idx = 0 : i32, arg_plus = 888 : i32}
      aiex.npu.maskwrite32 {address = 119312 : ui32, column = 0 : i32, mask = 3840 : ui32, row = 0 : i32, value = 3840 : ui32}
      aiex.npu.write32 {address = 119316 : ui32, column = 0 : i32, row = 0 : i32, value = 2147483648 : ui32}
      aiex.npu.sync {channel = 0 : i32, column = 0 : i32, column_num = 1 : i32, direction = 1 : i32, row = 0 : i32, row_num = 1 : i32}
      %49 = memref.get_global @blockwrite_data_56 : memref<8xi32>
      aiex.npu.blockwrite(%49) {address = 118784 : ui32} : memref<8xi32>
      aiex.npu.address_patch {addr = 118788 : ui32, arg_idx = 0 : i32, arg_plus = 908 : i32}
      aiex.npu.maskwrite32 {address = 119312 : ui32, column = 0 : i32, mask = 3840 : ui32, row = 0 : i32, value = 3840 : ui32}
      aiex.npu.write32 {address = 119316 : ui32, column = 0 : i32, row = 0 : i32, value = 2147483648 : ui32}
      aiex.npu.sync {channel = 0 : i32, column = 0 : i32, column_num = 1 : i32, direction = 1 : i32, row = 0 : i32, row_num = 1 : i32}
      %50 = memref.get_global @blockwrite_data_57 : memref<8xi32>
      aiex.npu.blockwrite(%50) {address = 118784 : ui32} : memref<8xi32>
      aiex.npu.address_patch {addr = 118788 : ui32, arg_idx = 0 : i32, arg_plus = 928 : i32}
      aiex.npu.maskwrite32 {address = 119312 : ui32, column = 0 : i32, mask = 3840 : ui32, row = 0 : i32, value = 3840 : ui32}
      aiex.npu.write32 {address = 119316 : ui32, column = 0 : i32, row = 0 : i32, value = 2147483648 : ui32}
      aiex.npu.sync {channel = 0 : i32, column = 0 : i32, column_num = 1 : i32, direction = 1 : i32, row = 0 : i32, row_num = 1 : i32}
      %51 = memref.get_global @blockwrite_data_58 : memref<8xi32>
      aiex.npu.blockwrite(%51) {address = 118784 : ui32} : memref<8xi32>
      aiex.npu.address_patch {addr = 118788 : ui32, arg_idx = 0 : i32, arg_plus = 948 : i32}
      aiex.npu.maskwrite32 {address = 119312 : ui32, column = 0 : i32, mask = 3840 : ui32, row = 0 : i32, value = 3840 : ui32}
      aiex.npu.write32 {address = 119316 : ui32, column = 0 : i32, row = 0 : i32, value = 2147483648 : ui32}
      aiex.npu.sync {channel = 0 : i32, column = 0 : i32, column_num = 1 : i32, direction = 1 : i32, row = 0 : i32, row_num = 1 : i32}
      %52 = memref.get_global @blockwrite_data_59 : memref<8xi32>
      aiex.npu.blockwrite(%52) {address = 118784 : ui32} : memref<8xi32>
      aiex.npu.address_patch {addr = 118788 : ui32, arg_idx = 0 : i32, arg_plus = 968 : i32}
      aiex.npu.maskwrite32 {address = 119312 : ui32, column = 0 : i32, mask = 3840 : ui32, row = 0 : i32, value = 3840 : ui32}
      aiex.npu.write32 {address = 119316 : ui32, column = 0 : i32, row = 0 : i32, value = 2147483648 : ui32}
      aiex.npu.sync {channel = 0 : i32, column = 0 : i32, column_num = 1 : i32, direction = 1 : i32, row = 0 : i32, row_num = 1 : i32}
      %53 = memref.get_global @blockwrite_data_60 : memref<8xi32>
      aiex.npu.blockwrite(%53) {address = 118784 : ui32} : memref<8xi32>
      aiex.npu.address_patch {addr = 118788 : ui32, arg_idx = 0 : i32, arg_plus = 988 : i32}
      aiex.npu.maskwrite32 {address = 119312 : ui32, column = 0 : i32, mask = 3840 : ui32, row = 0 : i32, value = 3840 : ui32}
      aiex.npu.write32 {address = 119316 : ui32, column = 0 : i32, row = 0 : i32, value = 2147483648 : ui32}
      aiex.npu.sync {channel = 0 : i32, column = 0 : i32, column_num = 1 : i32, direction = 1 : i32, row = 0 : i32, row_num = 1 : i32}
      %54 = memref.get_global @blockwrite_data_61 : memref<8xi32>
      aiex.npu.blockwrite(%54) {address = 118784 : ui32} : memref<8xi32>
      aiex.npu.address_patch {addr = 118788 : ui32, arg_idx = 0 : i32, arg_plus = 1008 : i32}
      aiex.npu.maskwrite32 {address = 119312 : ui32, column = 0 : i32, mask = 3840 : ui32, row = 0 : i32, value = 3840 : ui32}
      aiex.npu.write32 {address = 119316 : ui32, column = 0 : i32, row = 0 : i32, value = 2147483648 : ui32}
      aiex.npu.sync {channel = 0 : i32, column = 0 : i32, column_num = 1 : i32, direction = 1 : i32, row = 0 : i32, row_num = 1 : i32}
      %55 = memref.get_global @blockwrite_data_62 : memref<8xi32>
      aiex.npu.blockwrite(%55) {address = 118784 : ui32} : memref<8xi32>
      aiex.npu.address_patch {addr = 118788 : ui32, arg_idx = 0 : i32, arg_plus = 1028 : i32}
      aiex.npu.maskwrite32 {address = 119312 : ui32, column = 0 : i32, mask = 3840 : ui32, row = 0 : i32, value = 3840 : ui32}
      aiex.npu.write32 {address = 119316 : ui32, column = 0 : i32, row = 0 : i32, value = 2147483648 : ui32}
      aiex.npu.sync {channel = 0 : i32, column = 0 : i32, column_num = 1 : i32, direction = 1 : i32, row = 0 : i32, row_num = 1 : i32}
      %56 = memref.get_global @blockwrite_data_63 : memref<8xi32>
      aiex.npu.blockwrite(%56) {address = 118784 : ui32} : memref<8xi32>
      aiex.npu.address_patch {addr = 118788 : ui32, arg_idx = 0 : i32, arg_plus = 1048 : i32}
      aiex.npu.maskwrite32 {address = 119312 : ui32, column = 0 : i32, mask = 3840 : ui32, row = 0 : i32, value = 3840 : ui32}
      aiex.npu.write32 {address = 119316 : ui32, column = 0 : i32, row = 0 : i32, value = 2147483648 : ui32}
      aiex.npu.sync {channel = 0 : i32, column = 0 : i32, column_num = 1 : i32, direction = 1 : i32, row = 0 : i32, row_num = 1 : i32}
      %57 = memref.get_global @blockwrite_data_64 : memref<8xi32>
      aiex.npu.blockwrite(%57) {address = 118784 : ui32} : memref<8xi32>
      aiex.npu.address_patch {addr = 118788 : ui32, arg_idx = 0 : i32, arg_plus = 1068 : i32}
      aiex.npu.maskwrite32 {address = 119312 : ui32, column = 0 : i32, mask = 3840 : ui32, row = 0 : i32, value = 3840 : ui32}
      aiex.npu.write32 {address = 119316 : ui32, column = 0 : i32, row = 0 : i32, value = 2147483648 : ui32}
      aiex.npu.sync {channel = 0 : i32, column = 0 : i32, column_num = 1 : i32, direction = 1 : i32, row = 0 : i32, row_num = 1 : i32}
      %58 = memref.get_global @blockwrite_data_65 : memref<8xi32>
      aiex.npu.blockwrite(%58) {address = 118784 : ui32} : memref<8xi32>
      aiex.npu.address_patch {addr = 118788 : ui32, arg_idx = 0 : i32, arg_plus = 1088 : i32}
      aiex.npu.maskwrite32 {address = 119312 : ui32, column = 0 : i32, mask = 3840 : ui32, row = 0 : i32, value = 3840 : ui32}
      aiex.npu.write32 {address = 119316 : ui32, column = 0 : i32, row = 0 : i32, value = 2147483648 : ui32}
      aiex.npu.sync {channel = 0 : i32, column = 0 : i32, column_num = 1 : i32, direction = 1 : i32, row = 0 : i32, row_num = 1 : i32}
      %59 = memref.get_global @blockwrite_data_66 : memref<8xi32>
      aiex.npu.blockwrite(%59) {address = 118784 : ui32} : memref<8xi32>
      aiex.npu.address_patch {addr = 118788 : ui32, arg_idx = 0 : i32, arg_plus = 1108 : i32}
      aiex.npu.maskwrite32 {address = 119312 : ui32, column = 0 : i32, mask = 3840 : ui32, row = 0 : i32, value = 3840 : ui32}
      aiex.npu.write32 {address = 119316 : ui32, column = 0 : i32, row = 0 : i32, value = 2147483648 : ui32}
      aiex.npu.sync {channel = 0 : i32, column = 0 : i32, column_num = 1 : i32, direction = 1 : i32, row = 0 : i32, row_num = 1 : i32}
      %60 = memref.get_global @blockwrite_data_67 : memref<8xi32>
      aiex.npu.blockwrite(%60) {address = 118784 : ui32} : memref<8xi32>
      aiex.npu.address_patch {addr = 118788 : ui32, arg_idx = 0 : i32, arg_plus = 1128 : i32}
      aiex.npu.maskwrite32 {address = 119312 : ui32, column = 0 : i32, mask = 3840 : ui32, row = 0 : i32, value = 3840 : ui32}
      aiex.npu.write32 {address = 119316 : ui32, column = 0 : i32, row = 0 : i32, value = 2147483648 : ui32}
      aiex.npu.sync {channel = 0 : i32, column = 0 : i32, column_num = 1 : i32, direction = 1 : i32, row = 0 : i32, row_num = 1 : i32}
      %61 = memref.get_global @blockwrite_data_68 : memref<8xi32>
      aiex.npu.blockwrite(%61) {address = 118784 : ui32} : memref<8xi32>
      aiex.npu.address_patch {addr = 118788 : ui32, arg_idx = 0 : i32, arg_plus = 1148 : i32}
      aiex.npu.maskwrite32 {address = 119312 : ui32, column = 0 : i32, mask = 3840 : ui32, row = 0 : i32, value = 3840 : ui32}
      aiex.npu.write32 {address = 119316 : ui32, column = 0 : i32, row = 0 : i32, value = 2147483648 : ui32}
      aiex.npu.sync {channel = 0 : i32, column = 0 : i32, column_num = 1 : i32, direction = 1 : i32, row = 0 : i32, row_num = 1 : i32}
      %62 = memref.get_global @blockwrite_data_69 : memref<8xi32>
      aiex.npu.blockwrite(%62) {address = 118784 : ui32} : memref<8xi32>
      aiex.npu.address_patch {addr = 118788 : ui32, arg_idx = 0 : i32, arg_plus = 1168 : i32}
      aiex.npu.maskwrite32 {address = 119312 : ui32, column = 0 : i32, mask = 3840 : ui32, row = 0 : i32, value = 3840 : ui32}
      aiex.npu.write32 {address = 119316 : ui32, column = 0 : i32, row = 0 : i32, value = 2147483648 : ui32}
      aiex.npu.sync {channel = 0 : i32, column = 0 : i32, column_num = 1 : i32, direction = 1 : i32, row = 0 : i32, row_num = 1 : i32}
      %63 = memref.get_global @blockwrite_data_70 : memref<8xi32>
      aiex.npu.blockwrite(%63) {address = 118784 : ui32} : memref<8xi32>
      aiex.npu.address_patch {addr = 118788 : ui32, arg_idx = 0 : i32, arg_plus = 1188 : i32}
      aiex.npu.maskwrite32 {address = 119312 : ui32, column = 0 : i32, mask = 3840 : ui32, row = 0 : i32, value = 3840 : ui32}
      aiex.npu.write32 {address = 119316 : ui32, column = 0 : i32, row = 0 : i32, value = 2147483648 : ui32}
      aiex.npu.sync {channel = 0 : i32, column = 0 : i32, column_num = 1 : i32, direction = 1 : i32, row = 0 : i32, row_num = 1 : i32}
      %64 = memref.get_global @blockwrite_data_71 : memref<8xi32>
      aiex.npu.blockwrite(%64) {address = 118784 : ui32} : memref<8xi32>
      aiex.npu.address_patch {addr = 118788 : ui32, arg_idx = 0 : i32, arg_plus = 1208 : i32}
      aiex.npu.maskwrite32 {address = 119312 : ui32, column = 0 : i32, mask = 3840 : ui32, row = 0 : i32, value = 3840 : ui32}
      aiex.npu.write32 {address = 119316 : ui32, column = 0 : i32, row = 0 : i32, value = 2147483648 : ui32}
      aiex.npu.sync {channel = 0 : i32, column = 0 : i32, column_num = 1 : i32, direction = 1 : i32, row = 0 : i32, row_num = 1 : i32}
      %65 = memref.get_global @blockwrite_data_72 : memref<8xi32>
      aiex.npu.blockwrite(%65) {address = 118784 : ui32} : memref<8xi32>
      aiex.npu.address_patch {addr = 118788 : ui32, arg_idx = 0 : i32, arg_plus = 1228 : i32}
      aiex.npu.maskwrite32 {address = 119312 : ui32, column = 0 : i32, mask = 3840 : ui32, row = 0 : i32, value = 3840 : ui32}
      aiex.npu.write32 {address = 119316 : ui32, column = 0 : i32, row = 0 : i32, value = 2147483648 : ui32}
      aiex.npu.sync {channel = 0 : i32, column = 0 : i32, column_num = 1 : i32, direction = 1 : i32, row = 0 : i32, row_num = 1 : i32}
      %66 = memref.get_global @blockwrite_data_73 : memref<8xi32>
      aiex.npu.blockwrite(%66) {address = 118784 : ui32} : memref<8xi32>
      aiex.npu.address_patch {addr = 118788 : ui32, arg_idx = 0 : i32, arg_plus = 1248 : i32}
      aiex.npu.maskwrite32 {address = 119312 : ui32, column = 0 : i32, mask = 3840 : ui32, row = 0 : i32, value = 3840 : ui32}
      aiex.npu.write32 {address = 119316 : ui32, column = 0 : i32, row = 0 : i32, value = 2147483648 : ui32}
      aiex.npu.sync {channel = 0 : i32, column = 0 : i32, column_num = 1 : i32, direction = 1 : i32, row = 0 : i32, row_num = 1 : i32}
      %67 = memref.get_global @blockwrite_data_74 : memref<8xi32>
      aiex.npu.blockwrite(%67) {address = 118784 : ui32} : memref<8xi32>
      aiex.npu.address_patch {addr = 118788 : ui32, arg_idx = 0 : i32, arg_plus = 1268 : i32}
      aiex.npu.maskwrite32 {address = 119312 : ui32, column = 0 : i32, mask = 3840 : ui32, row = 0 : i32, value = 3840 : ui32}
      aiex.npu.write32 {address = 119316 : ui32, column = 0 : i32, row = 0 : i32, value = 2147483648 : ui32}
      aiex.npu.sync {channel = 0 : i32, column = 0 : i32, column_num = 1 : i32, direction = 1 : i32, row = 0 : i32, row_num = 1 : i32}
      %68 = memref.get_global @blockwrite_data_75 : memref<8xi32>
      aiex.npu.blockwrite(%68) {address = 118784 : ui32} : memref<8xi32>
      aiex.npu.address_patch {addr = 118788 : ui32, arg_idx = 0 : i32, arg_plus = 1276 : i32}
      aiex.npu.maskwrite32 {address = 119312 : ui32, column = 0 : i32, mask = 3840 : ui32, row = 0 : i32, value = 3840 : ui32}
      aiex.npu.write32 {address = 119316 : ui32, column = 0 : i32, row = 0 : i32, value = 2147483648 : ui32}
      aiex.npu.sync {channel = 0 : i32, column = 0 : i32, column_num = 1 : i32, direction = 1 : i32, row = 0 : i32, row_num = 1 : i32}
      %69 = memref.get_global @blockwrite_data_76 : memref<8xi32>
      aiex.npu.blockwrite(%69) {address = 118784 : ui32} : memref<8xi32>
      aiex.npu.address_patch {addr = 118788 : ui32, arg_idx = 0 : i32, arg_plus = 1284 : i32}
      aiex.npu.maskwrite32 {address = 119312 : ui32, column = 0 : i32, mask = 3840 : ui32, row = 0 : i32, value = 3840 : ui32}
      aiex.npu.write32 {address = 119316 : ui32, column = 0 : i32, row = 0 : i32, value = 2147483648 : ui32}
      aiex.npu.sync {channel = 0 : i32, column = 0 : i32, column_num = 1 : i32, direction = 1 : i32, row = 0 : i32, row_num = 1 : i32}
      %70 = memref.get_global @blockwrite_data_77 : memref<8xi32>
      aiex.npu.blockwrite(%70) {address = 118784 : ui32} : memref<8xi32>
      aiex.npu.address_patch {addr = 118788 : ui32, arg_idx = 0 : i32, arg_plus = 1292 : i32}
      aiex.npu.maskwrite32 {address = 119312 : ui32, column = 0 : i32, mask = 3840 : ui32, row = 0 : i32, value = 3840 : ui32}
      aiex.npu.write32 {address = 119316 : ui32, column = 0 : i32, row = 0 : i32, value = 2147483648 : ui32}
      aiex.npu.sync {channel = 0 : i32, column = 0 : i32, column_num = 1 : i32, direction = 1 : i32, row = 0 : i32, row_num = 1 : i32}
      %71 = memref.get_global @blockwrite_data_78 : memref<8xi32>
      aiex.npu.blockwrite(%71) {address = 118784 : ui32} : memref<8xi32>
      aiex.npu.address_patch {addr = 118788 : ui32, arg_idx = 0 : i32, arg_plus = 1300 : i32}
      aiex.npu.maskwrite32 {address = 119312 : ui32, column = 0 : i32, mask = 3840 : ui32, row = 0 : i32, value = 3840 : ui32}
      aiex.npu.write32 {address = 119316 : ui32, column = 0 : i32, row = 0 : i32, value = 2147483648 : ui32}
      aiex.npu.sync {channel = 0 : i32, column = 0 : i32, column_num = 1 : i32, direction = 1 : i32, row = 0 : i32, row_num = 1 : i32}
      %72 = memref.get_global @blockwrite_data_79 : memref<8xi32>
      aiex.npu.blockwrite(%72) {address = 118784 : ui32} : memref<8xi32>
      aiex.npu.address_patch {addr = 118788 : ui32, arg_idx = 0 : i32, arg_plus = 1308 : i32}
      aiex.npu.maskwrite32 {address = 119312 : ui32, column = 0 : i32, mask = 3840 : ui32, row = 0 : i32, value = 3840 : ui32}
      aiex.npu.write32 {address = 119316 : ui32, column = 0 : i32, row = 0 : i32, value = 2147483648 : ui32}
      aiex.npu.sync {channel = 0 : i32, column = 0 : i32, column_num = 1 : i32, direction = 1 : i32, row = 0 : i32, row_num = 1 : i32}
      %73 = memref.get_global @blockwrite_data_80 : memref<8xi32>
      aiex.npu.blockwrite(%73) {address = 118784 : ui32} : memref<8xi32>
      aiex.npu.address_patch {addr = 118788 : ui32, arg_idx = 0 : i32, arg_plus = 1316 : i32}
      aiex.npu.maskwrite32 {address = 119312 : ui32, column = 0 : i32, mask = 3840 : ui32, row = 0 : i32, value = 3840 : ui32}
      aiex.npu.write32 {address = 119316 : ui32, column = 0 : i32, row = 0 : i32, value = 2147483648 : ui32}
      aiex.npu.sync {channel = 0 : i32, column = 0 : i32, column_num = 1 : i32, direction = 1 : i32, row = 0 : i32, row_num = 1 : i32}
      %74 = memref.get_global @blockwrite_data_81 : memref<8xi32>
      aiex.npu.blockwrite(%74) {address = 118784 : ui32} : memref<8xi32>
      aiex.npu.address_patch {addr = 118788 : ui32, arg_idx = 0 : i32, arg_plus = 1324 : i32}
      aiex.npu.maskwrite32 {address = 119312 : ui32, column = 0 : i32, mask = 3840 : ui32, row = 0 : i32, value = 3840 : ui32}
      aiex.npu.write32 {address = 119316 : ui32, column = 0 : i32, row = 0 : i32, value = 2147483648 : ui32}
      aiex.npu.sync {channel = 0 : i32, column = 0 : i32, column_num = 1 : i32, direction = 1 : i32, row = 0 : i32, row_num = 1 : i32}
      %75 = memref.get_global @blockwrite_data_82 : memref<8xi32>
      aiex.npu.blockwrite(%75) {address = 118784 : ui32} : memref<8xi32>
      aiex.npu.address_patch {addr = 118788 : ui32, arg_idx = 0 : i32, arg_plus = 1332 : i32}
      aiex.npu.maskwrite32 {address = 119312 : ui32, column = 0 : i32, mask = 3840 : ui32, row = 0 : i32, value = 3840 : ui32}
      aiex.npu.write32 {address = 119316 : ui32, column = 0 : i32, row = 0 : i32, value = 2147483648 : ui32}
      aiex.npu.sync {channel = 0 : i32, column = 0 : i32, column_num = 1 : i32, direction = 1 : i32, row = 0 : i32, row_num = 1 : i32}
      %76 = memref.get_global @blockwrite_data_83 : memref<8xi32>
      aiex.npu.blockwrite(%76) {address = 118784 : ui32} : memref<8xi32>
      aiex.npu.address_patch {addr = 118788 : ui32, arg_idx = 0 : i32, arg_plus = 1340 : i32}
      aiex.npu.maskwrite32 {address = 119312 : ui32, column = 0 : i32, mask = 3840 : ui32, row = 0 : i32, value = 3840 : ui32}
      aiex.npu.write32 {address = 119316 : ui32, column = 0 : i32, row = 0 : i32, value = 2147483648 : ui32}
      aiex.npu.sync {channel = 0 : i32, column = 0 : i32, column_num = 1 : i32, direction = 1 : i32, row = 0 : i32, row_num = 1 : i32}
      %77 = memref.get_global @blockwrite_data_84 : memref<8xi32>
      aiex.npu.blockwrite(%77) {address = 118784 : ui32} : memref<8xi32>
      aiex.npu.address_patch {addr = 118788 : ui32, arg_idx = 0 : i32, arg_plus = 1348 : i32}
      aiex.npu.maskwrite32 {address = 119312 : ui32, column = 0 : i32, mask = 3840 : ui32, row = 0 : i32, value = 3840 : ui32}
      aiex.npu.write32 {address = 119316 : ui32, column = 0 : i32, row = 0 : i32, value = 2147483648 : ui32}
      aiex.npu.sync {channel = 0 : i32, column = 0 : i32, column_num = 1 : i32, direction = 1 : i32, row = 0 : i32, row_num = 1 : i32}
      %78 = memref.get_global @blockwrite_data_85 : memref<8xi32>
      aiex.npu.blockwrite(%78) {address = 118784 : ui32} : memref<8xi32>
      aiex.npu.address_patch {addr = 118788 : ui32, arg_idx = 0 : i32, arg_plus = 1356 : i32}
      aiex.npu.maskwrite32 {address = 119312 : ui32, column = 0 : i32, mask = 3840 : ui32, row = 0 : i32, value = 3840 : ui32}
      aiex.npu.write32 {address = 119316 : ui32, column = 0 : i32, row = 0 : i32, value = 2147483648 : ui32}
      aiex.npu.sync {channel = 0 : i32, column = 0 : i32, column_num = 1 : i32, direction = 1 : i32, row = 0 : i32, row_num = 1 : i32}
      %79 = memref.get_global @blockwrite_data_86 : memref<8xi32>
      aiex.npu.blockwrite(%79) {address = 118784 : ui32} : memref<8xi32>
      aiex.npu.address_patch {addr = 118788 : ui32, arg_idx = 0 : i32, arg_plus = 1364 : i32}
      aiex.npu.maskwrite32 {address = 119312 : ui32, column = 0 : i32, mask = 3840 : ui32, row = 0 : i32, value = 3840 : ui32}
      aiex.npu.write32 {address = 119316 : ui32, column = 0 : i32, row = 0 : i32, value = 2147483648 : ui32}
      aiex.npu.sync {channel = 0 : i32, column = 0 : i32, column_num = 1 : i32, direction = 1 : i32, row = 0 : i32, row_num = 1 : i32}
      %80 = memref.get_global @blockwrite_data_87 : memref<8xi32>
      aiex.npu.blockwrite(%80) {address = 118784 : ui32} : memref<8xi32>
      aiex.npu.address_patch {addr = 118788 : ui32, arg_idx = 0 : i32, arg_plus = 1372 : i32}
      aiex.npu.maskwrite32 {address = 119312 : ui32, column = 0 : i32, mask = 3840 : ui32, row = 0 : i32, value = 3840 : ui32}
      aiex.npu.write32 {address = 119316 : ui32, column = 0 : i32, row = 0 : i32, value = 2147483648 : ui32}
      aiex.npu.sync {channel = 0 : i32, column = 0 : i32, column_num = 1 : i32, direction = 1 : i32, row = 0 : i32, row_num = 1 : i32}
      %81 = memref.get_global @blockwrite_data_88 : memref<8xi32>
      aiex.npu.blockwrite(%81) {address = 118784 : ui32} : memref<8xi32>
      aiex.npu.address_patch {addr = 118788 : ui32, arg_idx = 0 : i32, arg_plus = 1380 : i32}
      aiex.npu.maskwrite32 {address = 119312 : ui32, column = 0 : i32, mask = 3840 : ui32, row = 0 : i32, value = 3840 : ui32}
      aiex.npu.write32 {address = 119316 : ui32, column = 0 : i32, row = 0 : i32, value = 2147483648 : ui32}
      aiex.npu.sync {channel = 0 : i32, column = 0 : i32, column_num = 1 : i32, direction = 1 : i32, row = 0 : i32, row_num = 1 : i32}
      %82 = memref.get_global @blockwrite_data_89 : memref<8xi32>
      aiex.npu.blockwrite(%82) {address = 118784 : ui32} : memref<8xi32>
      aiex.npu.address_patch {addr = 118788 : ui32, arg_idx = 0 : i32, arg_plus = 1388 : i32}
      aiex.npu.maskwrite32 {address = 119312 : ui32, column = 0 : i32, mask = 3840 : ui32, row = 0 : i32, value = 3840 : ui32}
      aiex.npu.write32 {address = 119316 : ui32, column = 0 : i32, row = 0 : i32, value = 2147483648 : ui32}
      aiex.npu.sync {channel = 0 : i32, column = 0 : i32, column_num = 1 : i32, direction = 1 : i32, row = 0 : i32, row_num = 1 : i32}
      %83 = memref.get_global @blockwrite_data_90 : memref<8xi32>
      aiex.npu.blockwrite(%83) {address = 118784 : ui32} : memref<8xi32>
      aiex.npu.address_patch {addr = 118788 : ui32, arg_idx = 0 : i32, arg_plus = 1396 : i32}
      aiex.npu.maskwrite32 {address = 119312 : ui32, column = 0 : i32, mask = 3840 : ui32, row = 0 : i32, value = 3840 : ui32}
      aiex.npu.write32 {address = 119316 : ui32, column = 0 : i32, row = 0 : i32, value = 2147483648 : ui32}
      aiex.npu.sync {channel = 0 : i32, column = 0 : i32, column_num = 1 : i32, direction = 1 : i32, row = 0 : i32, row_num = 1 : i32}
      %84 = memref.get_global @blockwrite_data_91 : memref<8xi32>
      aiex.npu.blockwrite(%84) {address = 118784 : ui32} : memref<8xi32>
      aiex.npu.address_patch {addr = 118788 : ui32, arg_idx = 0 : i32, arg_plus = 1404 : i32}
      aiex.npu.maskwrite32 {address = 119312 : ui32, column = 0 : i32, mask = 3840 : ui32, row = 0 : i32, value = 3840 : ui32}
      aiex.npu.write32 {address = 119316 : ui32, column = 0 : i32, row = 0 : i32, value = 2147483648 : ui32}
      aiex.npu.sync {channel = 0 : i32, column = 0 : i32, column_num = 1 : i32, direction = 1 : i32, row = 0 : i32, row_num = 1 : i32}
      %85 = memref.get_global @blockwrite_data_92 : memref<8xi32>
      aiex.npu.blockwrite(%85) {address = 118784 : ui32} : memref<8xi32>
      aiex.npu.address_patch {addr = 118788 : ui32, arg_idx = 0 : i32, arg_plus = 1412 : i32}
      aiex.npu.maskwrite32 {address = 119312 : ui32, column = 0 : i32, mask = 3840 : ui32, row = 0 : i32, value = 3840 : ui32}
      aiex.npu.write32 {address = 119316 : ui32, column = 0 : i32, row = 0 : i32, value = 2147483648 : ui32}
      aiex.npu.sync {channel = 0 : i32, column = 0 : i32, column_num = 1 : i32, direction = 1 : i32, row = 0 : i32, row_num = 1 : i32}
      %86 = memref.get_global @blockwrite_data_93 : memref<8xi32>
      aiex.npu.blockwrite(%86) {address = 118784 : ui32} : memref<8xi32>
      aiex.npu.address_patch {addr = 118788 : ui32, arg_idx = 0 : i32, arg_plus = 1420 : i32}
      aiex.npu.maskwrite32 {address = 119312 : ui32, column = 0 : i32, mask = 3840 : ui32, row = 0 : i32, value = 3840 : ui32}
      aiex.npu.write32 {address = 119316 : ui32, column = 0 : i32, row = 0 : i32, value = 2147483648 : ui32}
      aiex.npu.sync {channel = 0 : i32, column = 0 : i32, column_num = 1 : i32, direction = 1 : i32, row = 0 : i32, row_num = 1 : i32}
      %87 = memref.get_global @blockwrite_data_94 : memref<8xi32>
      aiex.npu.blockwrite(%87) {address = 118784 : ui32} : memref<8xi32>
      aiex.npu.address_patch {addr = 118788 : ui32, arg_idx = 0 : i32, arg_plus = 1428 : i32}
      aiex.npu.maskwrite32 {address = 119312 : ui32, column = 0 : i32, mask = 3840 : ui32, row = 0 : i32, value = 3840 : ui32}
      aiex.npu.write32 {address = 119316 : ui32, column = 0 : i32, row = 0 : i32, value = 2147483648 : ui32}
      aiex.npu.sync {channel = 0 : i32, column = 0 : i32, column_num = 1 : i32, direction = 1 : i32, row = 0 : i32, row_num = 1 : i32}
      %88 = memref.get_global @blockwrite_data_95 : memref<8xi32>
      aiex.npu.blockwrite(%88) {address = 118784 : ui32} : memref<8xi32>
      aiex.npu.address_patch {addr = 118788 : ui32, arg_idx = 0 : i32, arg_plus = 1436 : i32}
      aiex.npu.maskwrite32 {address = 119312 : ui32, column = 0 : i32, mask = 3840 : ui32, row = 0 : i32, value = 3840 : ui32}
      aiex.npu.write32 {address = 119316 : ui32, column = 0 : i32, row = 0 : i32, value = 2147483648 : ui32}
      aiex.npu.sync {channel = 0 : i32, column = 0 : i32, column_num = 1 : i32, direction = 1 : i32, row = 0 : i32, row_num = 1 : i32}
      %89 = memref.get_global @blockwrite_data_96 : memref<8xi32>
      aiex.npu.blockwrite(%89) {address = 118784 : ui32} : memref<8xi32>
      aiex.npu.address_patch {addr = 118788 : ui32, arg_idx = 0 : i32, arg_plus = 1444 : i32}
      aiex.npu.maskwrite32 {address = 119312 : ui32, column = 0 : i32, mask = 3840 : ui32, row = 0 : i32, value = 3840 : ui32}
      aiex.npu.write32 {address = 119316 : ui32, column = 0 : i32, row = 0 : i32, value = 2147483648 : ui32}
      aiex.npu.sync {channel = 0 : i32, column = 0 : i32, column_num = 1 : i32, direction = 1 : i32, row = 0 : i32, row_num = 1 : i32}
      %90 = memref.get_global @blockwrite_data_97 : memref<8xi32>
      aiex.npu.blockwrite(%90) {address = 118784 : ui32} : memref<8xi32>
      aiex.npu.address_patch {addr = 118788 : ui32, arg_idx = 0 : i32, arg_plus = 1452 : i32}
      aiex.npu.maskwrite32 {address = 119312 : ui32, column = 0 : i32, mask = 3840 : ui32, row = 0 : i32, value = 3840 : ui32}
      aiex.npu.write32 {address = 119316 : ui32, column = 0 : i32, row = 0 : i32, value = 2147483648 : ui32}
      aiex.npu.sync {channel = 0 : i32, column = 0 : i32, column_num = 1 : i32, direction = 1 : i32, row = 0 : i32, row_num = 1 : i32}
      %91 = memref.get_global @blockwrite_data_98 : memref<8xi32>
      aiex.npu.blockwrite(%91) {address = 118784 : ui32} : memref<8xi32>
      aiex.npu.address_patch {addr = 118788 : ui32, arg_idx = 0 : i32, arg_plus = 1460 : i32}
      aiex.npu.maskwrite32 {address = 119312 : ui32, column = 0 : i32, mask = 3840 : ui32, row = 0 : i32, value = 3840 : ui32}
      aiex.npu.write32 {address = 119316 : ui32, column = 0 : i32, row = 0 : i32, value = 2147483648 : ui32}
      aiex.npu.sync {channel = 0 : i32, column = 0 : i32, column_num = 1 : i32, direction = 1 : i32, row = 0 : i32, row_num = 1 : i32}
      %92 = memref.get_global @blockwrite_data_99 : memref<8xi32>
      aiex.npu.blockwrite(%92) {address = 118784 : ui32} : memref<8xi32>
      aiex.npu.address_patch {addr = 118788 : ui32, arg_idx = 0 : i32, arg_plus = 1468 : i32}
      aiex.npu.maskwrite32 {address = 119312 : ui32, column = 0 : i32, mask = 3840 : ui32, row = 0 : i32, value = 3840 : ui32}
      aiex.npu.write32 {address = 119316 : ui32, column = 0 : i32, row = 0 : i32, value = 2147483648 : ui32}
      aiex.npu.sync {channel = 0 : i32, column = 0 : i32, column_num = 1 : i32, direction = 1 : i32, row = 0 : i32, row_num = 1 : i32}
      %93 = memref.get_global @blockwrite_data_100 : memref<8xi32>
      aiex.npu.blockwrite(%93) {address = 118784 : ui32} : memref<8xi32>
      aiex.npu.address_patch {addr = 118788 : ui32, arg_idx = 0 : i32, arg_plus = 1476 : i32}
      aiex.npu.maskwrite32 {address = 119312 : ui32, column = 0 : i32, mask = 3840 : ui32, row = 0 : i32, value = 3840 : ui32}
      aiex.npu.write32 {address = 119316 : ui32, column = 0 : i32, row = 0 : i32, value = 2147483648 : ui32}
      aiex.npu.sync {channel = 0 : i32, column = 0 : i32, column_num = 1 : i32, direction = 1 : i32, row = 0 : i32, row_num = 1 : i32}
      %94 = memref.get_global @blockwrite_data_101 : memref<8xi32>
      aiex.npu.blockwrite(%94) {address = 118784 : ui32} : memref<8xi32>
      aiex.npu.address_patch {addr = 118788 : ui32, arg_idx = 0 : i32, arg_plus = 1484 : i32}
      aiex.npu.maskwrite32 {address = 119312 : ui32, column = 0 : i32, mask = 3840 : ui32, row = 0 : i32, value = 3840 : ui32}
      aiex.npu.write32 {address = 119316 : ui32, column = 0 : i32, row = 0 : i32, value = 2147483648 : ui32}
      aiex.npu.sync {channel = 0 : i32, column = 0 : i32, column_num = 1 : i32, direction = 1 : i32, row = 0 : i32, row_num = 1 : i32}
      %95 = memref.get_global @blockwrite_data_102 : memref<8xi32>
      aiex.npu.blockwrite(%95) {address = 118784 : ui32} : memref<8xi32>
      aiex.npu.address_patch {addr = 118788 : ui32, arg_idx = 0 : i32, arg_plus = 1492 : i32}
      aiex.npu.maskwrite32 {address = 119312 : ui32, column = 0 : i32, mask = 3840 : ui32, row = 0 : i32, value = 3840 : ui32}
      aiex.npu.write32 {address = 119316 : ui32, column = 0 : i32, row = 0 : i32, value = 2147483648 : ui32}
      aiex.npu.sync {channel = 0 : i32, column = 0 : i32, column_num = 1 : i32, direction = 1 : i32, row = 0 : i32, row_num = 1 : i32}
      %96 = memref.get_global @blockwrite_data_103 : memref<8xi32>
      aiex.npu.blockwrite(%96) {address = 118784 : ui32} : memref<8xi32>
      aiex.npu.address_patch {addr = 118788 : ui32, arg_idx = 0 : i32, arg_plus = 1500 : i32}
      aiex.npu.maskwrite32 {address = 119312 : ui32, column = 0 : i32, mask = 3840 : ui32, row = 0 : i32, value = 3840 : ui32}
      aiex.npu.write32 {address = 119316 : ui32, column = 0 : i32, row = 0 : i32, value = 2147483648 : ui32}
      aiex.npu.sync {channel = 0 : i32, column = 0 : i32, column_num = 1 : i32, direction = 1 : i32, row = 0 : i32, row_num = 1 : i32}
      %97 = memref.get_global @blockwrite_data_104 : memref<8xi32>
      aiex.npu.blockwrite(%97) {address = 118784 : ui32} : memref<8xi32>
      aiex.npu.address_patch {addr = 118788 : ui32, arg_idx = 0 : i32, arg_plus = 1508 : i32}
      aiex.npu.maskwrite32 {address = 119312 : ui32, column = 0 : i32, mask = 3840 : ui32, row = 0 : i32, value = 3840 : ui32}
      aiex.npu.write32 {address = 119316 : ui32, column = 0 : i32, row = 0 : i32, value = 2147483648 : ui32}
      aiex.npu.sync {channel = 0 : i32, column = 0 : i32, column_num = 1 : i32, direction = 1 : i32, row = 0 : i32, row_num = 1 : i32}
      %98 = memref.get_global @blockwrite_data_105 : memref<8xi32>
      aiex.npu.blockwrite(%98) {address = 118784 : ui32} : memref<8xi32>
      aiex.npu.address_patch {addr = 118788 : ui32, arg_idx = 0 : i32, arg_plus = 1528 : i32}
      aiex.npu.maskwrite32 {address = 119312 : ui32, column = 0 : i32, mask = 3840 : ui32, row = 0 : i32, value = 3840 : ui32}
      aiex.npu.write32 {address = 119316 : ui32, column = 0 : i32, row = 0 : i32, value = 2147483648 : ui32}
      aiex.npu.sync {channel = 0 : i32, column = 0 : i32, column_num = 1 : i32, direction = 1 : i32, row = 0 : i32, row_num = 1 : i32}
      %99 = memref.get_global @blockwrite_data_106 : memref<8xi32>
      aiex.npu.blockwrite(%99) {address = 118784 : ui32} : memref<8xi32>
      aiex.npu.address_patch {addr = 118788 : ui32, arg_idx = 0 : i32, arg_plus = 1540 : i32}
      aiex.npu.maskwrite32 {address = 119312 : ui32, column = 0 : i32, mask = 3840 : ui32, row = 0 : i32, value = 3840 : ui32}
      aiex.npu.write32 {address = 119316 : ui32, column = 0 : i32, row = 0 : i32, value = 2147483648 : ui32}
      aiex.npu.sync {channel = 0 : i32, column = 0 : i32, column_num = 1 : i32, direction = 1 : i32, row = 0 : i32, row_num = 1 : i32}
      %100 = memref.get_global @blockwrite_data_107 : memref<8xi32>
      aiex.npu.blockwrite(%100) {address = 118784 : ui32} : memref<8xi32>
      aiex.npu.address_patch {addr = 118788 : ui32, arg_idx = 0 : i32, arg_plus = 1560 : i32}
      aiex.npu.maskwrite32 {address = 119312 : ui32, column = 0 : i32, mask = 3840 : ui32, row = 0 : i32, value = 3840 : ui32}
      aiex.npu.write32 {address = 119316 : ui32, column = 0 : i32, row = 0 : i32, value = 2147483648 : ui32}
      aiex.npu.sync {channel = 0 : i32, column = 0 : i32, column_num = 1 : i32, direction = 1 : i32, row = 0 : i32, row_num = 1 : i32}
      %101 = memref.get_global @blockwrite_data_108 : memref<8xi32>
      aiex.npu.blockwrite(%101) {address = 118784 : ui32} : memref<8xi32>
      aiex.npu.address_patch {addr = 118788 : ui32, arg_idx = 0 : i32, arg_plus = 1572 : i32}
      aiex.npu.maskwrite32 {address = 119312 : ui32, column = 0 : i32, mask = 3840 : ui32, row = 0 : i32, value = 3840 : ui32}
      aiex.npu.write32 {address = 119316 : ui32, column = 0 : i32, row = 0 : i32, value = 2147483648 : ui32}
      aiex.npu.sync {channel = 0 : i32, column = 0 : i32, column_num = 1 : i32, direction = 1 : i32, row = 0 : i32, row_num = 1 : i32}
      %102 = memref.get_global @blockwrite_data_109 : memref<8xi32>
      aiex.npu.blockwrite(%102) {address = 118784 : ui32} : memref<8xi32>
      aiex.npu.address_patch {addr = 118788 : ui32, arg_idx = 0 : i32, arg_plus = 1580 : i32}
      aiex.npu.maskwrite32 {address = 119312 : ui32, column = 0 : i32, mask = 3840 : ui32, row = 0 : i32, value = 3840 : ui32}
      aiex.npu.write32 {address = 119316 : ui32, column = 0 : i32, row = 0 : i32, value = 2147483648 : ui32}
      aiex.npu.sync {channel = 0 : i32, column = 0 : i32, column_num = 1 : i32, direction = 1 : i32, row = 0 : i32, row_num = 1 : i32}
      %103 = memref.get_global @blockwrite_data_110 : memref<8xi32>
      aiex.npu.blockwrite(%103) {address = 118784 : ui32} : memref<8xi32>
      aiex.npu.address_patch {addr = 118788 : ui32, arg_idx = 0 : i32, arg_plus = 1588 : i32}
      aiex.npu.maskwrite32 {address = 119312 : ui32, column = 0 : i32, mask = 3840 : ui32, row = 0 : i32, value = 3840 : ui32}
      aiex.npu.write32 {address = 119316 : ui32, column = 0 : i32, row = 0 : i32, value = 2147483648 : ui32}
      aiex.npu.sync {channel = 0 : i32, column = 0 : i32, column_num = 1 : i32, direction = 1 : i32, row = 0 : i32, row_num = 1 : i32}
      %104 = memref.get_global @blockwrite_data_111 : memref<8xi32>
      aiex.npu.blockwrite(%104) {address = 118784 : ui32} : memref<8xi32>
      aiex.npu.address_patch {addr = 118788 : ui32, arg_idx = 0 : i32, arg_plus = 1596 : i32}
      aiex.npu.maskwrite32 {address = 119312 : ui32, column = 0 : i32, mask = 3840 : ui32, row = 0 : i32, value = 3840 : ui32}
      aiex.npu.write32 {address = 119316 : ui32, column = 0 : i32, row = 0 : i32, value = 2147483648 : ui32}
      aiex.npu.sync {channel = 0 : i32, column = 0 : i32, column_num = 1 : i32, direction = 1 : i32, row = 0 : i32, row_num = 1 : i32}
      %105 = memref.get_global @blockwrite_data_112 : memref<8xi32>
      aiex.npu.blockwrite(%105) {address = 118784 : ui32} : memref<8xi32>
      aiex.npu.address_patch {addr = 118788 : ui32, arg_idx = 0 : i32, arg_plus = 1604 : i32}
      aiex.npu.maskwrite32 {address = 119312 : ui32, column = 0 : i32, mask = 3840 : ui32, row = 0 : i32, value = 3840 : ui32}
      aiex.npu.write32 {address = 119316 : ui32, column = 0 : i32, row = 0 : i32, value = 2147483648 : ui32}
      aiex.npu.sync {channel = 0 : i32, column = 0 : i32, column_num = 1 : i32, direction = 1 : i32, row = 0 : i32, row_num = 1 : i32}
      %106 = memref.get_global @blockwrite_data_113 : memref<8xi32>
      aiex.npu.blockwrite(%106) {address = 118784 : ui32} : memref<8xi32>
      aiex.npu.address_patch {addr = 118788 : ui32, arg_idx = 0 : i32, arg_plus = 1624 : i32}
      aiex.npu.maskwrite32 {address = 119312 : ui32, column = 0 : i32, mask = 3840 : ui32, row = 0 : i32, value = 3840 : ui32}
      aiex.npu.write32 {address = 119316 : ui32, column = 0 : i32, row = 0 : i32, value = 2147483648 : ui32}
      aiex.npu.sync {channel = 0 : i32, column = 0 : i32, column_num = 1 : i32, direction = 1 : i32, row = 0 : i32, row_num = 1 : i32}
      %107 = memref.get_global @blockwrite_data_114 : memref<8xi32>
      aiex.npu.blockwrite(%107) {address = 118784 : ui32} : memref<8xi32>
      aiex.npu.address_patch {addr = 118788 : ui32, arg_idx = 0 : i32, arg_plus = 1644 : i32}
      aiex.npu.maskwrite32 {address = 119312 : ui32, column = 0 : i32, mask = 3840 : ui32, row = 0 : i32, value = 3840 : ui32}
      aiex.npu.write32 {address = 119316 : ui32, column = 0 : i32, row = 0 : i32, value = 2147483648 : ui32}
      aiex.npu.sync {channel = 0 : i32, column = 0 : i32, column_num = 1 : i32, direction = 1 : i32, row = 0 : i32, row_num = 1 : i32}
      %108 = memref.get_global @blockwrite_data_115 : memref<8xi32>
      aiex.npu.blockwrite(%108) {address = 118784 : ui32} : memref<8xi32>
      aiex.npu.address_patch {addr = 118788 : ui32, arg_idx = 0 : i32, arg_plus = 1664 : i32}
      aiex.npu.maskwrite32 {address = 119312 : ui32, column = 0 : i32, mask = 3840 : ui32, row = 0 : i32, value = 3840 : ui32}
      aiex.npu.write32 {address = 119316 : ui32, column = 0 : i32, row = 0 : i32, value = 2147483648 : ui32}
      aiex.npu.sync {channel = 0 : i32, column = 0 : i32, column_num = 1 : i32, direction = 1 : i32, row = 0 : i32, row_num = 1 : i32}
      %109 = memref.get_global @blockwrite_data_116 : memref<8xi32>
      aiex.npu.blockwrite(%109) {address = 118784 : ui32} : memref<8xi32>
      aiex.npu.address_patch {addr = 118788 : ui32, arg_idx = 0 : i32, arg_plus = 1684 : i32}
      aiex.npu.maskwrite32 {address = 119312 : ui32, column = 0 : i32, mask = 3840 : ui32, row = 0 : i32, value = 3840 : ui32}
      aiex.npu.write32 {address = 119316 : ui32, column = 0 : i32, row = 0 : i32, value = 2147483648 : ui32}
      aiex.npu.sync {channel = 0 : i32, column = 0 : i32, column_num = 1 : i32, direction = 1 : i32, row = 0 : i32, row_num = 1 : i32}
      %110 = memref.get_global @blockwrite_data_117 : memref<8xi32>
      aiex.npu.blockwrite(%110) {address = 118784 : ui32} : memref<8xi32>
      aiex.npu.address_patch {addr = 118788 : ui32, arg_idx = 0 : i32, arg_plus = 1704 : i32}
      aiex.npu.maskwrite32 {address = 119312 : ui32, column = 0 : i32, mask = 3840 : ui32, row = 0 : i32, value = 3840 : ui32}
      aiex.npu.write32 {address = 119316 : ui32, column = 0 : i32, row = 0 : i32, value = 2147483648 : ui32}
      aiex.npu.sync {channel = 0 : i32, column = 0 : i32, column_num = 1 : i32, direction = 1 : i32, row = 0 : i32, row_num = 1 : i32}
      %111 = memref.get_global @blockwrite_data_118 : memref<8xi32>
      aiex.npu.blockwrite(%111) {address = 118784 : ui32} : memref<8xi32>
      aiex.npu.address_patch {addr = 118788 : ui32, arg_idx = 0 : i32, arg_plus = 1724 : i32}
      aiex.npu.maskwrite32 {address = 119312 : ui32, column = 0 : i32, mask = 3840 : ui32, row = 0 : i32, value = 3840 : ui32}
      aiex.npu.write32 {address = 119316 : ui32, column = 0 : i32, row = 0 : i32, value = 2147483648 : ui32}
      aiex.npu.sync {channel = 0 : i32, column = 0 : i32, column_num = 1 : i32, direction = 1 : i32, row = 0 : i32, row_num = 1 : i32}
      %112 = memref.get_global @blockwrite_data_119 : memref<8xi32>
      aiex.npu.blockwrite(%112) {address = 118784 : ui32} : memref<8xi32>
      aiex.npu.address_patch {addr = 118788 : ui32, arg_idx = 0 : i32, arg_plus = 1744 : i32}
      aiex.npu.maskwrite32 {address = 119312 : ui32, column = 0 : i32, mask = 3840 : ui32, row = 0 : i32, value = 3840 : ui32}
      aiex.npu.write32 {address = 119316 : ui32, column = 0 : i32, row = 0 : i32, value = 2147483648 : ui32}
      aiex.npu.sync {channel = 0 : i32, column = 0 : i32, column_num = 1 : i32, direction = 1 : i32, row = 0 : i32, row_num = 1 : i32}
      %113 = memref.get_global @blockwrite_data_120 : memref<8xi32>
      aiex.npu.blockwrite(%113) {address = 118784 : ui32} : memref<8xi32>
      aiex.npu.address_patch {addr = 118788 : ui32, arg_idx = 0 : i32, arg_plus = 1764 : i32}
      aiex.npu.maskwrite32 {address = 119312 : ui32, column = 0 : i32, mask = 3840 : ui32, row = 0 : i32, value = 3840 : ui32}
      aiex.npu.write32 {address = 119316 : ui32, column = 0 : i32, row = 0 : i32, value = 2147483648 : ui32}
      aiex.npu.sync {channel = 0 : i32, column = 0 : i32, column_num = 1 : i32, direction = 1 : i32, row = 0 : i32, row_num = 1 : i32}
      %114 = memref.get_global @blockwrite_data_121 : memref<8xi32>
      aiex.npu.blockwrite(%114) {address = 118784 : ui32} : memref<8xi32>
      aiex.npu.address_patch {addr = 118788 : ui32, arg_idx = 0 : i32, arg_plus = 1772 : i32}
      aiex.npu.maskwrite32 {address = 119312 : ui32, column = 0 : i32, mask = 3840 : ui32, row = 0 : i32, value = 3840 : ui32}
      aiex.npu.write32 {address = 119316 : ui32, column = 0 : i32, row = 0 : i32, value = 2147483648 : ui32}
      aiex.npu.sync {channel = 0 : i32, column = 0 : i32, column_num = 1 : i32, direction = 1 : i32, row = 0 : i32, row_num = 1 : i32}
      %115 = memref.get_global @blockwrite_data_122 : memref<8xi32>
      aiex.npu.blockwrite(%115) {address = 118784 : ui32} : memref<8xi32>
      aiex.npu.address_patch {addr = 118788 : ui32, arg_idx = 0 : i32, arg_plus = 1780 : i32}
      aiex.npu.maskwrite32 {address = 119312 : ui32, column = 0 : i32, mask = 3840 : ui32, row = 0 : i32, value = 3840 : ui32}
      aiex.npu.write32 {address = 119316 : ui32, column = 0 : i32, row = 0 : i32, value = 2147483648 : ui32}
      aiex.npu.sync {channel = 0 : i32, column = 0 : i32, column_num = 1 : i32, direction = 1 : i32, row = 0 : i32, row_num = 1 : i32}
      %116 = memref.get_global @blockwrite_data_123 : memref<8xi32>
      aiex.npu.blockwrite(%116) {address = 118784 : ui32} : memref<8xi32>
      aiex.npu.address_patch {addr = 118788 : ui32, arg_idx = 0 : i32, arg_plus = 1788 : i32}
      aiex.npu.maskwrite32 {address = 119312 : ui32, column = 0 : i32, mask = 3840 : ui32, row = 0 : i32, value = 3840 : ui32}
      aiex.npu.write32 {address = 119316 : ui32, column = 0 : i32, row = 0 : i32, value = 2147483648 : ui32}
      aiex.npu.sync {channel = 0 : i32, column = 0 : i32, column_num = 1 : i32, direction = 1 : i32, row = 0 : i32, row_num = 1 : i32}
      %117 = memref.get_global @blockwrite_data_124 : memref<8xi32>
      aiex.npu.blockwrite(%117) {address = 118784 : ui32} : memref<8xi32>
      aiex.npu.address_patch {addr = 118788 : ui32, arg_idx = 0 : i32, arg_plus = 1796 : i32}
      aiex.npu.maskwrite32 {address = 119312 : ui32, column = 0 : i32, mask = 3840 : ui32, row = 0 : i32, value = 3840 : ui32}
      aiex.npu.write32 {address = 119316 : ui32, column = 0 : i32, row = 0 : i32, value = 2147483648 : ui32}
      aiex.npu.sync {channel = 0 : i32, column = 0 : i32, column_num = 1 : i32, direction = 1 : i32, row = 0 : i32, row_num = 1 : i32}
      %118 = memref.get_global @blockwrite_data_125 : memref<8xi32>
      aiex.npu.blockwrite(%118) {address = 118784 : ui32} : memref<8xi32>
      aiex.npu.address_patch {addr = 118788 : ui32, arg_idx = 0 : i32, arg_plus = 1804 : i32}
      aiex.npu.maskwrite32 {address = 119312 : ui32, column = 0 : i32, mask = 3840 : ui32, row = 0 : i32, value = 3840 : ui32}
      aiex.npu.write32 {address = 119316 : ui32, column = 0 : i32, row = 0 : i32, value = 2147483648 : ui32}
      aiex.npu.sync {channel = 0 : i32, column = 0 : i32, column_num = 1 : i32, direction = 1 : i32, row = 0 : i32, row_num = 1 : i32}
      %119 = memref.get_global @blockwrite_data_126 : memref<8xi32>
      aiex.npu.blockwrite(%119) {address = 118784 : ui32} : memref<8xi32>
      aiex.npu.address_patch {addr = 118788 : ui32, arg_idx = 0 : i32, arg_plus = 1812 : i32}
      aiex.npu.maskwrite32 {address = 119312 : ui32, column = 0 : i32, mask = 3840 : ui32, row = 0 : i32, value = 3840 : ui32}
      aiex.npu.write32 {address = 119316 : ui32, column = 0 : i32, row = 0 : i32, value = 2147483648 : ui32}
      aiex.npu.sync {channel = 0 : i32, column = 0 : i32, column_num = 1 : i32, direction = 1 : i32, row = 0 : i32, row_num = 1 : i32}
      %120 = memref.get_global @blockwrite_data_127 : memref<8xi32>
      aiex.npu.blockwrite(%120) {address = 118784 : ui32} : memref<8xi32>
      aiex.npu.address_patch {addr = 118788 : ui32, arg_idx = 0 : i32, arg_plus = 1820 : i32}
      aiex.npu.maskwrite32 {address = 119312 : ui32, column = 0 : i32, mask = 3840 : ui32, row = 0 : i32, value = 3840 : ui32}
      aiex.npu.write32 {address = 119316 : ui32, column = 0 : i32, row = 0 : i32, value = 2147483648 : ui32}
      aiex.npu.sync {channel = 0 : i32, column = 0 : i32, column_num = 1 : i32, direction = 1 : i32, row = 0 : i32, row_num = 1 : i32}
      %121 = memref.get_global @blockwrite_data_128 : memref<8xi32>
      aiex.npu.blockwrite(%121) {address = 118784 : ui32} : memref<8xi32>
      aiex.npu.address_patch {addr = 118788 : ui32, arg_idx = 0 : i32, arg_plus = 1828 : i32}
      aiex.npu.maskwrite32 {address = 119312 : ui32, column = 0 : i32, mask = 3840 : ui32, row = 0 : i32, value = 3840 : ui32}
      aiex.npu.write32 {address = 119316 : ui32, column = 0 : i32, row = 0 : i32, value = 2147483648 : ui32}
      aiex.npu.sync {channel = 0 : i32, column = 0 : i32, column_num = 1 : i32, direction = 1 : i32, row = 0 : i32, row_num = 1 : i32}
      %122 = memref.get_global @blockwrite_data_129 : memref<8xi32>
      aiex.npu.blockwrite(%122) {address = 118784 : ui32} : memref<8xi32>
      aiex.npu.address_patch {addr = 118788 : ui32, arg_idx = 0 : i32, arg_plus = 1836 : i32}
      aiex.npu.maskwrite32 {address = 119312 : ui32, column = 0 : i32, mask = 3840 : ui32, row = 0 : i32, value = 3840 : ui32}
      aiex.npu.write32 {address = 119316 : ui32, column = 0 : i32, row = 0 : i32, value = 2147483648 : ui32}
